{
  "version": "1.0",
  "truncation": null,
  "padding": null,
  "added_tokens": [
    {
      "id": 0,
      "content": "[UNK]",
      "single_word": false,
      "lstrip": false,
      "rstrip": false,
      "normalized": false,
      "special": true
    },
    {
      "id": 1,
      "content": "[CLS]",
      "single_word": false,
      "lstrip": false,
      "rstrip": false,
      "normalized": false,
      "special": true
    },
    {
      "id": 2,
      "content": "[SEP]",
      "single_word": false,
      "lstrip": false,
      "rstrip": false,
      "normalized": false,
      "special": true
    },
    {
      "id": 3,
      "content": "[PAD]",
      "single_word": false,
      "lstrip": false,
      "rstrip": false,
      "normalized": false,
      "special": true
    },
    {
      "id": 4,
      "content": "[MASK]",
      "single_word": false,
      "lstrip": false,
      "rstrip": false,
      "normalized": false,
      "special": true
    }
  ],
  "normalizer": {
    "type": "Sequence",
    "normalizers": [
      {
        "type": "NFD"
      },
      {
        "type": "Lowercase"
      }
    ]
  },
  "pre_tokenizer": {
    "type": "Sequence",
    "pretokenizers": [
      {
        "type": "Whitespace"
      },
      {
        "type": "Punctuation",
        "behavior": "Isolated"
      }
    ]
  },
  "post_processor": null,
  "decoder": null,
  "model": {
    "type": "BPE",
    "dropout": null,
    "unk_token": "[UNK]",
    "continuing_subword_prefix": null,
    "end_of_word_suffix": null,
    "fuse_unk": false,
    "byte_fallback": false,
    "ignore_merges": false,
    "vocab": {
      "[UNK]": 0,
      "[CLS]": 1,
      "[SEP]": 2,
      "[PAD]": 3,
      "[MASK]": 4,
      "!": 5,
      "\"": 6,
      "#": 7,
      "$": 8,
      "%": 9,
      "&": 10,
      "'": 11,
      "(": 12,
      ")": 13,
      "*": 14,
      "+": 15,
      ",": 16,
      "-": 17,
      ".": 18,
      "/": 19,
      "0": 20,
      "1": 21,
      "2": 22,
      "3": 23,
      "4": 24,
      "5": 25,
      "6": 26,
      "7": 27,
      "8": 28,
      "9": 29,
      ":": 30,
      ";": 31,
      "<": 32,
      "=": 33,
      ">": 34,
      "?": 35,
      "@": 36,
      "[": 37,
      "\\": 38,
      "]": 39,
      "^": 40,
      "_": 41,
      "`": 42,
      "a": 43,
      "b": 44,
      "c": 45,
      "d": 46,
      "e": 47,
      "f": 48,
      "g": 49,
      "h": 50,
      "i": 51,
      "j": 52,
      "k": 53,
      "l": 54,
      "m": 55,
      "n": 56,
      "o": 57,
      "p": 58,
      "q": 59,
      "r": 60,
      "s": 61,
      "t": 62,
      "u": 63,
      "v": 64,
      "w": 65,
      "x": 66,
      "y": 67,
      "z": 68,
      "{": 69,
      "|": 70,
      "}": 71,
      "~": 72,
      "¡": 73,
      "£": 74,
      "¦": 75,
      "§": 76,
      "¨": 77,
      "©": 78,
      "ª": 79,
      "«": 80,
      "¬": 81,
      "­": 82,
      "®": 83,
      "¯": 84,
      "°": 85,
      "±": 86,
      "²": 87,
      "´": 88,
      "µ": 89,
      "¶": 90,
      "·": 91,
      "º": 92,
      "»": 93,
      "¼": 94,
      "½": 95,
      "¾": 96,
      "¿": 97,
      "×": 98,
      "ß": 99,
      "æ": 100,
      "ø": 101,
      "þ": 102,
      "đ": 103,
      "ı": 104,
      "ł": 105,
      "ŉ": 106,
      "ŋ": 107,
      "ƞ": 108,
      "ɂ": 109,
      "ɑ": 110,
      "ɔ": 111,
      "ɛ": 112,
      "ɣ": 113,
      "ɤ": 114,
      "ɯ": 115,
      "ʔ": 116,
      "ʟ": 117,
      "ʰ": 118,
      "ʹ": 119,
      "ʼ": 120,
      "˂": 121,
      "˃": 122,
      "ˆ": 123,
      "ː": 124,
      "˙": 125,
      "˚": 126,
      "˜": 127,
      "̀": 128,
      "́": 129,
      "̂": 130,
      "̃": 131,
      "̄": 132,
      "̅": 133,
      "̆": 134,
      "̇": 135,
      "̈": 136,
      "̊": 137,
      "̋": 138,
      "̌": 139,
      "̣": 140,
      "̧": 141,
      "̨": 142,
      "̸": 143,
      "α": 144,
      "β": 145,
      "γ": 146,
      "δ": 147,
      "ε": 148,
      "ζ": 149,
      "η": 150,
      "θ": 151,
      "ι": 152,
      "κ": 153,
      "λ": 154,
      "μ": 155,
      "ν": 156,
      "ξ": 157,
      "π": 158,
      "ρ": 159,
      "ς": 160,
      "σ": 161,
      "τ": 162,
      "υ": 163,
      "φ": 164,
      "χ": 165,
      "ψ": 166,
      "ω": 167,
      "ϒ": 168,
      "ϕ": 169,
      "ϵ": 170,
      "а": 171,
      "б": 172,
      "в": 173,
      "г": 174,
      "д": 175,
      "е": 176,
      "ж": 177,
      "з": 178,
      "и": 179,
      "к": 180,
      "л": 181,
      "м": 182,
      "н": 183,
      "о": 184,
      "п": 185,
      "р": 186,
      "с": 187,
      "т": 188,
      "у": 189,
      "ф": 190,
      "х": 191,
      "ц": 192,
      "ч": 193,
      "ш": 194,
      "ы": 195,
      "ь": 196,
      "э": 197,
      "ю": 198,
      "я": 199,
      "љ": 200,
      "њ": 201,
      "ћ": 202,
      "՛": 203,
      "ก": 204,
      "ข": 205,
      "ค": 206,
      "ง": 207,
      "จ": 208,
      "ฉ": 209,
      "ช": 210,
      "ซ": 211,
      "ญ": 212,
      "ฏ": 213,
      "ฐ": 214,
      "ฒ": 215,
      "ณ": 216,
      "ด": 217,
      "ต": 218,
      "ถ": 219,
      "ท": 220,
      "ธ": 221,
      "น": 222,
      "บ": 223,
      "ป": 224,
      "ผ": 225,
      "ฝ": 226,
      "พ": 227,
      "ฟ": 228,
      "ภ": 229,
      "ม": 230,
      "ย": 231,
      "ร": 232,
      "ล": 233,
      "ว": 234,
      "ศ": 235,
      "ษ": 236,
      "ส": 237,
      "ห": 238,
      "ฬ": 239,
      "อ": 240,
      "ฮ": 241,
      "ะ": 242,
      "ั": 243,
      "า": 244,
      "ำ": 245,
      "ิ": 246,
      "ี": 247,
      "ึ": 248,
      "ื": 249,
      "ุ": 250,
      "ู": 251,
      "เ": 252,
      "แ": 253,
      "โ": 254,
      "ใ": 255,
      "ไ": 256,
      "ๆ": 257,
      "็": 258,
      "่": 259,
      "้": 260,
      "์": 261,
      "ᵒ": 262,
      "᾽": 263,
      "​": 264,
      "‐": 265,
      "‑": 266,
      "‒": 267,
      "–": 268,
      "—": 269,
      "―": 270,
      "‖": 271,
      "‗": 272,
      "‘": 273,
      "’": 274,
      "‚": 275,
      "“": 276,
      "”": 277,
      "‟": 278,
      "†": 279,
      "‡": 280,
      "•": 281,
      "…": 282,
      "‰": 283,
      "′": 284,
      "″": 285,
      "‾": 286,
      "⁎": 287,
      "⁓": 288,
      "⁡": 289,
      "⁰": 290,
      "⁹": 291,
      "⁻": 292,
      "₂": 293,
      "₃": 294,
      "₄": 295,
      "₉": 296,
      "€": 297,
      "ℂ": 298,
      "℃": 299,
      "ℓ": 300,
      "ℕ": 301,
      "ℝ": 302,
      "™": 303,
      "ℤ": 304,
      "ℬ": 305,
      "→": 306,
      "↔": 307,
      "↪": 308,
      "⇓": 309,
      "∀": 310,
      "∂": 311,
      "∆": 312,
      "∇": 313,
      "∈": 314,
      "∑": 315,
      "−": 316,
      "∓": 317,
      "∕": 318,
      "∖": 319,
      "∗": 320,
      "∘": 321,
      "∙": 322,
      "√": 323,
      "∞": 324,
      "∣": 325,
      "∨": 326,
      "∪": 327,
      "∫": 328,
      "∼": 329,
      "≃": 330,
      "≈": 331,
      "≡": 332,
      "≤": 333,
      "≥": 334,
      "≪": 335,
      "≫": 336,
      "≲": 337,
      "≳": 338,
      "≼": 339,
      "⊂": 340,
      "⊆": 341,
      "⊕": 342,
      "⊙": 343,
      "⊥": 344,
      "⋅": 345,
      "⋆": 346,
      "⋉": 347,
      "⋯": 348,
      "⍺": 349,
      "ⓒ": 350,
      "ⓡ": 351,
      "─": 352,
      "□": 353,
      "▲": 354,
      "▴": 355,
      "▵": 356,
      "○": 357,
      "●": 358,
      "◦": 359,
      "♀": 360,
      "♂": 361,
      "✕": 362,
      "✰": 363,
      "➔": 364,
      "⟨": 365,
      "⟩": 366,
      "⩽": 367,
      "⩾": 368,
      "⪆": 369,
      "〈": 370,
      "〉": 371,
      "お": 372,
      "か": 373,
      "く": 374,
      "け": 375,
      "つ": 376,
      "に": 377,
      "の": 378,
      "ら": 379,
      "る": 380,
      "゙": 381,
      "ア": 382,
      "ィ": 383,
      "イ": 384,
      "ク": 385,
      "ケ": 386,
      "コ": 387,
      "シ": 388,
      "ス": 389,
      "タ": 390,
      "テ": 391,
      "ニ": 392,
      "ミ": 393,
      "ム": 394,
      "ュ": 395,
      "リ": 396,
      "・": 397,
      "ー": 398,
      "一": 399,
      "下": 400,
      "中": 401,
      "为": 402,
      "主": 403,
      "乙": 404,
      "习": 405,
      "乾": 406,
      "事": 407,
      "于": 408,
      "交": 409,
      "仁": 410,
      "以": 411,
      "件": 412,
      "优": 413,
      "估": 414,
      "位": 415,
      "体": 416,
      "例": 417,
      "供": 418,
      "侧": 419,
      "催": 420,
      "光": 421,
      "克": 422,
      "全": 423,
      "关": 424,
      "其": 425,
      "利": 426,
      "别": 427,
      "制": 428,
      "剂": 429,
      "力": 430,
      "加": 431,
      "动": 432,
      "化": 433,
      "北": 434,
      "原": 435,
      "及": 436,
      "反": 437,
      "变": 438,
      "可": 439,
      "合": 440,
      "同": 441,
      "向": 442,
      "含": 443,
      "和": 444,
      "响": 445,
      "四": 446,
      "因": 447,
      "固": 448,
      "国": 449,
      "圆": 450,
      "在": 451,
      "地": 452,
      "型": 453,
      "基": 454,
      "報": 455,
      "境": 456,
      "复": 457,
      "多": 458,
      "太": 459,
      "夷": 460,
      "子": 461,
      "学": 462,
      "安": 463,
      "定": 464,
      "对": 465,
      "层": 466,
      "屑": 467,
      "展": 468,
      "巴": 469,
      "应": 470,
      "度": 471,
      "影": 472,
      "征": 473,
      "态": 474,
      "性": 475,
      "患": 476,
      "情": 477,
      "手": 478,
      "技": 479,
      "提": 480,
      "效": 481,
      "教": 482,
      "数": 483,
      "料": 484,
      "新": 485,
      "有": 486,
      "术": 487,
      "机": 488,
      "村": 489,
      "束": 490,
      "条": 491,
      "构": 492,
      "果": 493,
      "检": 494,
      "業": 495,
      "氢": 496,
      "氧": 497,
      "水": 498,
      "池": 499,
      "沉": 500,
      "治": 501,
      "法": 502,
      "泰": 503,
      "流": 504,
      "浆": 505,
      "测": 506,
      "浓": 507,
      "湾": 508,
      "源": 509,
      "滑": 510,
      "演": 511,
      "炎": 512,
      "熱": 513,
      "燥": 514,
      "牙": 515,
      "物": 516,
      "特": 517,
      "献": 518,
      "率": 519,
      "环": 520,
      "现": 521,
      "班": 522,
      "生": 523,
      "用": 524,
      "画": 525,
      "疗": 526,
      "発": 527,
      "白": 528,
      "的": 529,
      "盆": 530,
      "相": 531,
      "石": 532,
      "研": 533,
      "碎": 534,
      "种": 535,
      "积": 536,
      "程": 537,
      "究": 538,
      "第": 539,
      "粒": 540,
      "系": 541,
      "素": 542,
      "约": 543,
      "纸": 544,
      "线": 545,
      "细": 546,
      "结": 547,
      "美": 548,
      "群": 549,
      "者": 550,
      "联": 551,
      "胞": 552,
      "胶": 553,
      "胺": 554,
      "能": 555,
      "脱": 556,
      "膜": 557,
      "膝": 558,
      "节": 559,
      "药": 560,
      "莱": 561,
      "華": 562,
      "蓄": 563,
      "蕤": 564,
      "蛋": 565,
      "血": 566,
      "表": 567,
      "西": 568,
      "角": 569,
      "言": 570,
      "計": 571,
      "語": 572,
      "譯": 573,
      "评": 574,
      "试": 575,
      "语": 576,
      "课": 577,
      "貢": 578,
      "质": 579,
      "载": 580,
      "農": 581,
      "还": 582,
      "选": 583,
      "部": 584,
      "配": 585,
      "醇": 586,
      "量": 587,
      "鉴": 588,
      "锥": 589,
      "陆": 590,
      "限": 591,
      "陽": 592,
      "電": 593,
      "面": 594,
      "频": 595,
      "题": 596,
      "饲": 597,
      "骨": 598,
      "ﬁ": 599,
      "ﬂ": 600,
      "︀": 601,
      "﻿": 602,
      "（": 603,
      "）": 604,
      "＋": 605,
      "：": 606,
      "＜": 607,
      "＝": 608,
      "�": 609,
      "th": 610,
      "in": 611,
      "an": 612,
      "re": 613,
      "on": 614,
      "ti": 615,
      "er": 616,
      "the": 617,
      "en": 618,
      "al": 619,
      "ed": 620,
      "at": 621,
      "or": 622,
      "es": 623,
      "and": 624,
      "of": 625,
      "as": 626,
      "ro": 627,
      "tion": 628,
      "is": 629,
      "ic": 630,
      "ar": 631,
      "ing": 632,
      "st": 633,
      "to": 634,
      "ac": 635,
      "ec": 636,
      "it": 637,
      "el": 638,
      "co": 639,
      "ent": 640,
      "ation": 641,
      "le": 642,
      "us": 643,
      "res": 644,
      "ul": 645,
      "si": 646,
      "pro": 647,
      "for": 648,
      "ol": 649,
      "we": 650,
      "de": 651,
      "ur": 652,
      "ve": 653,
      "mp": 654,
      "un": 655,
      "wi": 656,
      "di": 657,
      "me": 658,
      "ch": 659,
      "con": 660,
      "il": 661,
      "ter": 662,
      "tr": 663,
      "with": 664,
      "ce": 665,
      "se": 666,
      "id": 667,
      "ly": 668,
      "mo": 669,
      "ts": 670,
      "lo": 671,
      "ig": 672,
      "ap": 673,
      "tic": 674,
      "ity": 675,
      "ment": 676,
      "ad": 677,
      "ag": 678,
      "ab": 679,
      "per": 680,
      "be": 681,
      "uc": 682,
      "ex": 683,
      "ver": 684,
      "was": 685,
      "po": 686,
      "ated": 687,
      "ati": 688,
      "ho": 689,
      "su": 690,
      "were": 691,
      "are": 692,
      "ff": 693,
      "am": 694,
      "im": 695,
      "20": 696,
      "ir": 697,
      "ut": 698,
      "sp": 699,
      "ate": 700,
      "so": 701,
      "qu": 702,
      "cl": 703,
      "igh": 704,
      "um": 705,
      "ud": 706,
      "ain": 707,
      "comp": 708,
      "by": 709,
      "op": 710,
      "no": 711,
      "te": 712,
      "ect": 713,
      "vel": 714,
      "rom": 715,
      "em": 716,
      "pl": 717,
      "und": 718,
      "ant": 719,
      "ess": 720,
      "ical": 721,
      "that": 722,
      "ci": 723,
      "od": 724,
      "ine": 725,
      "gen": 726,
      "vi": 727,
      "red": 728,
      "str": 729,
      "ne": 730,
      "if": 731,
      "from": 732,
      "this": 733,
      "ph": 734,
      "he": 735,
      "ay": 736,
      "ren": 737,
      "sis": 738,
      "ents": 739,
      "form": 740,
      "dis": 741,
      "ell": 742,
      "om": 743,
      "ure": 744,
      "ib": 745,
      "sy": 746,
      "aly": 747,
      "all": 748,
      "ther": 749,
      "up": 750,
      "stud": 751,
      "ase": 752,
      "iz": 753,
      "val": 754,
      "duc": 755,
      "tive": 756,
      "eff": 757,
      "gro": 758,
      "par": 759,
      "act": 760,
      "ge": 761,
      "wh": 762,
      "ion": 763,
      "fo": 764,
      "pres": 765,
      "study": 766,
      "ial": 767,
      "high": 768,
      "ations": 769,
      "est": 770,
      "age": 771,
      "ty": 772,
      "gn": 773,
      "gr": 774,
      "com": 775,
      "sion": 776,
      "resul": 777,
      "low": 778,
      "ort": 779,
      "ased": 780,
      "ence": 781,
      "pati": 782,
      "ance": 783,
      "cont": 784,
      "pr": 785,
      "ific": 786,
      "hy": 787,
      "bi": 788,
      "pre": 789,
      "ers": 790,
      "ved": 791,
      "inc": 792,
      "meth": 793,
      "cr": 794,
      "mon": 795,
      "ten": 796,
      "can": 797,
      "og": 798,
      "ob": 799,
      "ind": 800,
      "using": 801,
      "ha": 802,
      "cy": 803,
      "analy": 804,
      "ong": 805,
      "tiv": 806,
      "bo": 807,
      "mod": 808,
      "ia": 809,
      "ail": 810,
      "ma": 811,
      "li": 812,
      "ors": 813,
      "ass": 814,
      "sign": 815,
      "soci": 816,
      "ear": 817,
      "patients": 818,
      "ies": 819,
      "resp": 820,
      "ll": 821,
      "results": 822,
      "cell": 823,
      "ous": 824,
      "ach": 825,
      "inter": 826,
      "sho": 827,
      "able": 828,
      "inf": 829,
      "spec": 830,
      "ater": 831,
      "pe": 832,
      "tions": 833,
      "ms": 834,
      "diff": 835,
      "ser": 836,
      "os": 837,
      "imp": 838,
      "ip": 839,
      "olog": 840,
      "ich": 841,
      "one": 842,
      "med": 843,
      "au": 844,
      "00": 845,
      "tre": 846,
      "201": 847,
      "bet": 848,
      "group": 849,
      "eren": 850,
      "ative": 851,
      "anti": 852,
      "cor": 853,
      "out": 854,
      "af": 855,
      "202": 856,
      "method": 857,
      "ted": 858,
      "rel": 859,
      "ary": 860,
      "ility": 861,
      "tw": 862,
      "sur": 863,
      "ug": 864,
      "signific": 865,
      "produc": 866,
      "reg": 867,
      "tran": 868,
      "ace": 869,
      "mic": 870,
      "valu": 871,
      "fi": 872,
      "ech": 873,
      "cent": 874,
      "ties": 875,
      "vid": 876,
      "der": 877,
      "stem": 878,
      "ari": 879,
      "significant": 880,
      "end": 881,
      "used": 882,
      "use": 883,
      "cur": 884,
      "ection": 885,
      "dat": 886,
      "ub": 887,
      "model": 888,
      "differen": 889,
      "pol": 890,
      "car": 891,
      "show": 892,
      "inv": 893,
      "min": 894,
      "mal": 895,
      "lu": 896,
      "which": 897,
      "dr": 898,
      "ang": 899,
      "based": 900,
      "des": 901,
      "les": 902,
      "ween": 903,
      "system": 904,
      "incre": 905,
      "ke": 906,
      "between": 907,
      "ular": 908,
      "cess": 909,
      "ox": 910,
      "under": 911,
      "acter": 912,
      "ting": 913,
      "than": 914,
      "tial": 915,
      "pa": 916,
      "mul": 917,
      "cal": 918,
      "ca": 919,
      "analysis": 920,
      "br": 921,
      "man": 922,
      "vely": 923,
      "ected": 924,
      "its": 925,
      "effec": 926,
      "over": 927,
      "devel": 928,
      "peri": 929,
      "develop": 930,
      "perform": 931,
      "sa": 932,
      "vir": 933,
      "esti": 934,
      "ven": 935,
      "ast": 936,
      "ory": 937,
      "lic": 938,
      "associ": 939,
      "wor": 940,
      "10": 941,
      "na": 942,
      "dro": 943,
      "ard": 944,
      "more": 945,
      "ating": 946,
      "fact": 947,
      "ces": 948,
      "ailand": 949,
      "cer": 950,
      "data": 951,
      "thailand": 952,
      "ability": 953,
      "ared": 954,
      "sub": 955,
      "ight": 956,
      "not": 957,
      "vari": 958,
      "struc": 959,
      "sed": 960,
      "yl": 961,
      "port": 962,
      "has": 963,
      "ree": 964,
      "incl": 965,
      "tivity": 966,
      "treat": 967,
      "tal": 968,
      "sol": 969,
      "dec": 970,
      "alth": 971,
      "tical": 972,
      "char": 973,
      "sh": 974,
      "tional": 975,
      "trans": 976,
      "ss": 977,
      "ack": 978,
      "level": 979,
      "fr": 980,
      "treatment": 981,
      "have": 982,
      "cat": 983,
      "our": 984,
      "uld": 985,
      "ates": 986,
      "ite": 987,
      "mun": 988,
      "ized": 989,
      "usion": 990,
      "tively": 991,
      "contro": 992,
      "enti": 993,
      "these": 994,
      "their": 995,
      "ens": 996,
      "auth": 997,
      "ish": 998,
      "ual": 999,
      "fe": 1000,
      "av": 1001,
      "two": 1002,
      "bio": 1003,
      "unc": 1004,
      "ai": 1005,
      "micro": 1006,
      "ization": 1007,
      "oc": 1008,
      "partic": 1009,
      "action": 1010,
      "respon": 1011,
      "hydro": 1012,
      "ication": 1013,
      "includ": 1014,
      "det": 1015,
      "fir": 1016,
      "appl": 1017,
      "ature": 1018,
      "ta": 1019,
      "test": 1020,
      "after": 1021,
      "ugh": 1022,
      "estig": 1023,
      "investig": 1024,
      "health": 1025,
      "ution": 1026,
      "ep": 1027,
      "ris": 1028,
      "also": 1029,
      "et": 1030,
      "sup": 1031,
      "gy": 1032,
      "there": 1033,
      "poly": 1034,
      "tech": 1035,
      "sel": 1036,
      "non": 1037,
      "sco": 1038,
      "mar": 1039,
      "impro": 1040,
      "dur": 1041,
      "time": 1042,
      "ici": 1043,
      "present": 1044,
      "ist": 1045,
      "ural": 1046,
      "been": 1047,
      "cre": 1048,
      "ants": 1049,
      "iv": 1050,
      "techn": 1051,
      "ose": 1052,
      "process": 1053,
      "struct": 1054,
      "ill": 1055,
      "ile": 1056,
      "trib": 1057,
      "ber": 1058,
      "other": 1059,
      "showed": 1060,
      "syn": 1061,
      "tain": 1062,
      "had": 1063,
      "ality": 1064,
      "methods": 1065,
      "eng": 1066,
      "compared": 1067,
      "ign": 1068,
      "ide": 1069,
      "both": 1070,
      "significantly": 1071,
      "appro": 1072,
      "ectively": 1073,
      "coll": 1074,
      "stu": 1075,
      "ited": 1076,
      "ology": 1077,
      "found": 1078,
      "work": 1079,
      "cap": 1080,
      "hib": 1081,
      "gener": 1082,
      "studi": 1083,
      "ds": 1084,
      "ble": 1085,
      "higher": 1086,
      "associated": 1087,
      "identi": 1088,
      "respectively": 1089,
      "evalu": 1090,
      "water": 1091,
      "sti": 1092,
      "mi": 1093,
      "ments": 1094,
      "concl": 1095,
      "ectro": 1096,
      "ene": 1097,
      "cul": 1098,
      "different": 1099,
      "vers": 1100,
      "ases": 1101,
      "clin": 1102,
      "most": 1103,
      "ame": 1104,
      "year": 1105,
      "cataly": 1106,
      "func": 1107,
      "dise": 1108,
      "cells": 1109,
      "meas": 1110,
      "pho": 1111,
      "ue": 1112,
      "chem": 1113,
      "ced": 1114,
      "pt": 1115,
      "prote": 1116,
      "control": 1117,
      "centr": 1118,
      "pred": 1119,
      "19": 1120,
      "mat": 1121,
      "fied": 1122,
      "py": 1123,
      "among": 1124,
      "ses": 1125,
      "samp": 1126,
      "wever": 1127,
      "however": 1128,
      "amin": 1129,
      "ew": 1130,
      "rec": 1131,
      "ding": 1132,
      "acid": 1133,
      "poten": 1134,
      "new": 1135,
      "ks": 1136,
      "fol": 1137,
      "earch": 1138,
      "research": 1139,
      "deter": 1140,
      "production": 1141,
      "thai": 1142,
      "but": 1143,
      "lim": 1144,
      "12": 1145,
      "character": 1146,
      "formation": 1147,
      "ures": 1148,
      "aim": 1149,
      "during": 1150,
      "proper": 1151,
      "95": 1152,
      "posi": 1153,
      "addi": 1154,
      "pub": 1155,
      "ning": 1156,
      "mental": 1157,
      "ie": 1158,
      "conclusion": 1159,
      "ric": 1160,
      "effects": 1161,
      "nan": 1162,
      "ri": 1163,
      "ust": 1164,
      "ays": 1165,
      "reduc": 1166,
      "face": 1167,
      "inal": 1168,
      "main": 1169,
      "ational": 1170,
      "here": 1171,
      "view": 1172,
      "tics": 1173,
      "tis": 1174,
      "ra": 1175,
      "potential": 1176,
      "tern": 1177,
      "fur": 1178,
      "into": 1179,
      "effect": 1180,
      "mer": 1181,
      "ely": 1182,
      "experi": 1183,
      "gene": 1184,
      "grap": 1185,
      "tro": 1186,
      "tra": 1187,
      "stand": 1188,
      "thro": 1189,
      "phy": 1190,
      "por": 1191,
      "temp": 1192,
      "col": 1193,
      "medi": 1194,
      "ful": 1195,
      "mol": 1196,
      "ange": 1197,
      "immun": 1198,
      "clinical": 1199,
      "activity": 1200,
      "path": 1201,
      "line": 1202,
      "obser": 1203,
      "ak": 1204,
      "lear": 1205,
      "inding": 1206,
      "assess": 1207,
      "performance": 1208,
      "ev": 1209,
      "predic": 1210,
      "protein": 1211,
      "jec": 1212,
      "well": 1213,
      "lish": 1214,
      "50": 1215,
      "go": 1216,
      "increased": 1217,
      "risk": 1218,
      "ane": 1219,
      "ological": 1220,
      "2021": 1221,
      "bon": 1222,
      "arge": 1223,
      "2022": 1224,
      "pression": 1225,
      "related": 1226,
      "dep": 1227,
      "three": 1228,
      "bin": 1229,
      "econ": 1230,
      "requ": 1231,
      "factors": 1232,
      "could": 1233,
      "sing": 1234,
      "ps": 1235,
      "ulation": 1236,
      "acc": 1237,
      "extr": 1238,
      "mis": 1239,
      "2020": 1240,
      "condi": 1241,
      "multi": 1242,
      "coun": 1243,
      "zed": 1244,
      "rate": 1245,
      "now": 1246,
      "uni": 1247,
      "indic": 1248,
      "ety": 1249,
      "tric": 1250,
      "13": 1251,
      "including": 1252,
      "ener": 1253,
      "2019": 1254,
      "studies": 1255,
      "oper": 1256,
      "fore": 1257,
      "design": 1258,
      "15": 1259,
      "curren": 1260,
      "til": 1261,
      "groups": 1262,
      "properties": 1263,
      "num": 1264,
      "author": 1265,
      "back": 1266,
      "inte": 1267,
      "who": 1268,
      "propo": 1269,
      "comple": 1270,
      "report": 1271,
      "do": 1272,
      "ness": 1273,
      "further": 1274,
      "sor": 1275,
      "concentr": 1276,
      "gg": 1277,
      "exp": 1278,
      "disease": 1279,
      "aterial": 1280,
      "hum": 1281,
      "fer": 1282,
      "try": 1283,
      "gan": 1284,
      "echan": 1285,
      "elec": 1286,
      "chemical": 1287,
      "sive": 1288,
      "sequ": 1289,
      "while": 1290,
      "ground": 1291,
      "erature": 1292,
      "ital": 1293,
      "eld": 1294,
      "type": 1295,
      "enh": 1296,
      "ze": 1297,
      "ving": 1298,
      "que": 1299,
      "rati": 1300,
      "mechan": 1301,
      "reser": 1302,
      "ights": 1303,
      "may": 1304,
      "ied": 1305,
      "king": 1306,
      "such": 1307,
      "acy": 1308,
      "electro": 1309,
      "post": 1310,
      "total": 1311,
      "ency": 1312,
      "bas": 1313,
      "energy": 1314,
      "son": 1315,
      "lower": 1316,
      "tim": 1317,
      "first": 1318,
      "follow": 1319,
      "ii": 1320,
      "effici": 1321,
      "ute": 1322,
      "pap": 1323,
      "strate": 1324,
      "material": 1325,
      "16": 1326,
      "2018": 1327,
      "compo": 1328,
      "vic": 1329,
      "prot": 1330,
      "know": 1331,
      "lif": 1332,
      "dy": 1333,
      "vis": 1334,
      "veal": 1335,
      "surface": 1336,
      "ines": 1337,
      "aff": 1338,
      "levels": 1339,
      "species": 1340,
      "reveal": 1341,
      "through": 1342,
      "nam": 1343,
      "years": 1344,
      "sm": 1345,
      "diag": 1346,
      "development": 1347,
      "ross": 1348,
      "provid": 1349,
      "30": 1350,
      "organ": 1351,
      "mil": 1352,
      "approach": 1353,
      "18": 1354,
      "human": 1355,
      "mor": 1356,
      "rece": 1357,
      "ions": 1358,
      "nor": 1359,
      "very": 1360,
      "combin": 1361,
      "def": 1362,
      "catalyst": 1363,
      "ived": 1364,
      "ters": 1365,
      "bacter": 1366,
      "therap": 1367,
      "bl": 1368,
      "demon": 1369,
      "ques": 1370,
      "blo": 1371,
      "ple": 1372,
      "gre": 1373,
      "rights": 1374,
      "typ": 1375,
      "improve": 1376,
      "particip": 1377,
      "review": 1378,
      "long": 1379,
      "diagno": 1380,
      "conduc": 1381,
      "cancer": 1382,
      "reserved": 1383,
      "induc": 1384,
      "sugg": 1385,
      "specific": 1386,
      "mg": 1387,
      "sure": 1388,
      "when": 1389,
      "synthe": 1390,
      "met": 1391,
      "cs": 1392,
      "finding": 1393,
      "import": 1394,
      "ger": 1395,
      "obtain": 1396,
      "acti": 1397,
      "lt": 1398,
      "current": 1399,
      "neu": 1400,
      "oxid": 1401,
      "ption": 1402,
      "cus": 1403,
      "mean": 1404,
      "set": 1405,
      "ages": 1406,
      "techni": 1407,
      "14": 1408,
      "vol": 1409,
      "sen": 1410,
      "ome": 1411,
      "ld": 1412,
      "men": 1413,
      "care": 1414,
      "land": 1415,
      "quality": 1416,
      "envir": 1417,
      "environ": 1418,
      "graph": 1419,
      "arch": 1420,
      "drug": 1421,
      "arm": 1422,
      "ogen": 1423,
      "plas": 1424,
      "mass": 1425,
      "inhib": 1426,
      "observed": 1427,
      "ded": 1428,
      "paper": 1429,
      "common": 1430,
      "due": 1431,
      "ste": 1432,
      "grow": 1433,
      "ites": 1434,
      "compar": 1435,
      "aining": 1436,
      "depend": 1437,
      "ori": 1438,
      "ism": 1439,
      "my": 1440,
      "bal": 1441,
      "led": 1442,
      "artic": 1443,
      "modi": 1444,
      "ring": 1445,
      "strain": 1446,
      "samples": 1447,
      "ae": 1448,
      "addition": 1449,
      "virus": 1450,
      "omic": 1451,
      "ratio": 1452,
      "decre": 1453,
      "performed": 1454,
      "fication": 1455,
      "fac": 1456,
      "versity": 1457,
      "compos": 1458,
      "ini": 1459,
      "carbon": 1460,
      "expression": 1461,
      "objec": 1462,
      "tes": 1463,
      "each": 1464,
      "atic": 1465,
      "pd": 1466,
      "side": 1467,
      "ading": 1468,
      "ured": 1469,
      "onic": 1470,
      "distrib": 1471,
      "emp": 1472,
      "beha": 1473,
      "ture": 1474,
      "ung": 1475,
      "pur": 1476,
      "else": 1477,
      "25": 1478,
      "behavi": 1479,
      "vier": 1480,
      "only": 1481,
      "agement": 1482,
      "ild": 1483,
      "authors": 1484,
      "determin": 1485,
      "less": 1486,
      "temperature": 1487,
      "elsevier": 1488,
      "active": 1489,
      "background": 1490,
      "flu": 1491,
      "proposed": 1492,
      "sever": 1493,
      "cd": 1494,
      "ive": 1495,
      "investigated": 1496,
      "parame": 1497,
      "findings": 1498,
      "hol": 1499,
      "pat": 1500,
      "molec": 1501,
      "fl": 1502,
      "isol": 1503,
      "ml": 1504,
      "part": 1505,
      "those": 1506,
      "cost": 1507,
      "four": 1508,
      "vacc": 1509,
      "value": 1510,
      "infection": 1511,
      "mm": 1512,
      "pop": 1513,
      "support": 1514,
      "detection": 1515,
      "characteris": 1516,
      "electr": 1517,
      "ress": 1518,
      "conditions": 1519,
      "indi": 1520,
      "developed": 1521,
      "revealed": 1522,
      "pi": 1523,
      "int": 1524,
      "number": 1525,
      "ot": 1526,
      "influ": 1527,
      "demonstr": 1528,
      "hip": 1529,
      "where": 1530,
      "atis": 1531,
      "oral": 1532,
      "various": 1533,
      "publish": 1534,
      "oid": 1535,
      "simul": 1536,
      "without": 1537,
      "child": 1538,
      "month": 1539,
      "suggest": 1540,
      "mem": 1541,
      "fy": 1542,
      "xim": 1543,
      "sal": 1544,
      "uce": 1545,
      "obtained": 1546,
      "11": 1547,
      "ian": 1548,
      "24": 1549,
      "fib": 1550,
      "scal": 1551,
      "clo": 1552,
      "app": 1553,
      "100": 1554,
      "equ": 1555,
      "order": 1556,
      "comes": 1557,
      "chang": 1558,
      "period": 1559,
      "tox": 1560,
      "loy": 1561,
      "phen": 1562,
      "integr": 1563,
      "structure": 1564,
      "atory": 1565,
      "positive": 1566,
      "la": 1567,
      "fil": 1568,
      "compound": 1569,
      "management": 1570,
      "reported": 1571,
      "again": 1572,
      "important": 1573,
      "suc": 1574,
      "rect": 1575,
      "rand": 1576,
      "del": 1577,
      "dom": 1578,
      "society": 1579,
      "2023": 1580,
      "participants": 1581,
      "ext": 1582,
      "outcomes": 1583,
      "increase": 1584,
      "random": 1585,
      "against": 1586,
      "twor": 1587,
      "prof": 1588,
      "17": 1589,
      "effective": 1590,
      "measure": 1591,
      "sw": 1592,
      "oil": 1593,
      "enz": 1594,
      "05": 1595,
      "cm": 1596,
      "relations": 1597,
      "via": 1598,
      "networ": 1599,
      "wee": 1600,
      "area": 1601,
      "jor": 1602,
      "function": 1603,
      "national": 1604,
      "phys": 1605,
      "prim": 1606,
      "cross": 1607,
      "radi": 1608,
      "bec": 1609,
      "resist": 1610,
      "range": 1611,
      "ath": 1612,
      "gu": 1613,
      "ok": 1614,
      "alg": 1615,
      "ression": 1616,
      "bre": 1617,
      "anced": 1618,
      "glo": 1619,
      "assi": 1620,
      "lam": 1621,
      "response": 1622,
      "need": 1623,
      "activ": 1624,
      "pos": 1625,
      "ltd": 1626,
      "sch": 1627,
      "major": 1628,
      "lit": 1629,
      "ities": 1630,
      "verse": 1631,
      "kin": 1632,
      "sul": 1633,
      "sens": 1634,
      "standard": 1635,
      "lin": 1636,
      "waste": 1637,
      "models": 1638,
      "proble": 1639,
      "induced": 1640,
      "phase": 1641,
      "role": 1642,
      "collected": 1643,
      "targe": 1644,
      "novel": 1645,
      "cyto": 1646,
      "vs": 1647,
      "growth": 1648,
      "gram": 1649,
      "case": 1650,
      "association": 1651,
      "learning": 1652,
      "ications": 1653,
      "ves": 1654,
      "pow": 1655,
      "impact": 1656,
      "concentration": 1657,
      "within": 1658,
      "identified": 1659,
      "materials": 1660,
      "therapy": 1661,
      "exhib": 1662,
      "vide": 1663,
      "commun": 1664,
      "dex": 1665,
      "gl": 1666,
      "reng": 1667,
      "then": 1668,
      "sour": 1669,
      "sensi": 1670,
      "streng": 1671,
      "md": 1672,
      "nat": 1673,
      "yi": 1674,
      "air": 1675,
      "requi": 1676,
      "ade": 1677,
      "log": 1678,
      "secon": 1679,
      "factor": 1680,
      "examin": 1681,
      "conducted": 1682,
      "biom": 1683,
      "ium": 1684,
      "cin": 1685,
      "gas": 1686,
      "pic": 1687,
      "cis": 1688,
      "reco": 1689,
      "sorption": 1690,
      "hosp": 1691,
      "art": 1692,
      "ck": 1693,
      "ody": 1694,
      "ward": 1695,
      "spring": 1696,
      "information": 1697,
      "types": 1698,
      "blood": 1699,
      "applied": 1700,
      "covid": 1701,
      "demonstrated": 1702,
      "rest": 1703,
      "children": 1704,
      "highest": 1705,
      "second": 1706,
      "ele": 1707,
      "60": 1708,
      "pv": 1709,
      "accur": 1710,
      "mix": 1711,
      "characteristics": 1712,
      "normal": 1713,
      "asing": 1714,
      "ark": 1715,
      "itro": 1716,
      "size": 1717,
      "wn": 1718,
      "ax": 1719,
      "descr": 1720,
      "light": 1721,
      "ct": 1722,
      "photo": 1723,
      "come": 1724,
      "cle": 1725,
      "idence": 1726,
      "complex": 1727,
      "university": 1728,
      "parameters": 1729,
      "included": 1730,
      "achie": 1731,
      "flow": 1732,
      "ior": 1733,
      "evid": 1734,
      "molecular": 1735,
      "reaction": 1736,
      "pec": 1737,
      "basel": 1738,
      "evaluated": 1739,
      "oh": 1740,
      "life": 1741,
      "morph": 1742,
      "inflam": 1743,
      "neuro": 1744,
      "amp": 1745,
      "single": 1746,
      "util": 1747,
      "simil": 1748,
      "mpto": 1749,
      "stit": 1750,
      "sci": 1751,
      "grad": 1752,
      "treated": 1753,
      "should": 1754,
      "ons": 1755,
      "sph": 1756,
      "mine": 1757,
      "therefore": 1758,
      "tically": 1759,
      "tri": 1760,
      "conclusions": 1761,
      "body": 1762,
      "ently": 1763,
      "conf": 1764,
      "hospital": 1765,
      "hiv": 1766,
      "large": 1767,
      "estim": 1768,
      "some": 1769,
      "extract": 1770,
      "cu": 1771,
      "consis": 1772,
      "001": 1773,
      "nal": 1774,
      "40": 1775,
      "classi": 1776,
      "days": 1777,
      "eth": 1778,
      "mentation": 1779,
      "loc": 1780,
      "tries": 1781,
      "cing": 1782,
      "along": 1783,
      "stability": 1784,
      "many": 1785,
      "avail": 1786,
      "day": 1787,
      "objective": 1788,
      "aimed": 1789,
      "proton": 1790,
      "o2": 1791,
      "dna": 1792,
      "nano": 1793,
      "dist": 1794,
      "uted": 1795,
      "icity": 1796,
      "systems": 1797,
      "genes": 1798,
      "inten": 1799,
      "patient": 1800,
      "lled": 1801,
      "functional": 1802,
      "similar": 1803,
      "springer": 1804,
      "scre": 1805,
      "methyl": 1806,
      "adv": 1807,
      "namic": 1808,
      "natural": 1809,
      "wo": 1810,
      "vere": 1811,
      "trial": 1812,
      "itor": 1813,
      "umin": 1814,
      "values": 1815,
      "neg": 1816,
      "application": 1817,
      "amine": 1818,
      "reduction": 1819,
      "valid": 1820,
      "relationship": 1821,
      "social": 1822,
      "ening": 1823,
      "super": 1824,
      "change": 1825,
      "ince": 1826,
      "success": 1827,
      "hydrogen": 1828,
      "ns": 1829,
      "content": 1830,
      "presented": 1831,
      "small": 1832,
      "gly": 1833,
      "provide": 1834,
      "optim": 1835,
      "several": 1836,
      "they": 1837,
      "limited": 1838,
      "transp": 1839,
      "ude": 1840,
      "off": 1841,
      "28": 1842,
      "result": 1843,
      "verage": 1844,
      "stress": 1845,
      "capac": 1846,
      "cept": 1847,
      "determine": 1848,
      "pb": 1849,
      "aging": 1850,
      "score": 1851,
      "ars": 1852,
      "promo": 1853,
      "vities": 1854,
      "23": 1855,
      "way": 1856,
      "local": 1857,
      "vidual": 1858,
      "ically": 1859,
      "individual": 1860,
      "confir": 1861,
      "public": 1862,
      "strength": 1863,
      "self": 1864,
      "vious": 1865,
      "bene": 1866,
      "investigate": 1867,
      "rna": 1868,
      "stat": 1869,
      "sc": 1870,
      "changes": 1871,
      "vice": 1872,
      "free": 1873,
      "ough": 1874,
      "ense": 1875,
      "solution": 1876,
      "sequen": 1877,
      "omen": 1878,
      "mes": 1879,
      "vent": 1880,
      "stain": 1881,
      "actions": 1882,
      "sympto": 1883,
      "any": 1884,
      "oph": 1885,
      "months": 1886,
      "lab": 1887,
      "mu": 1888,
      "ledge": 1889,
      "oxide": 1890,
      "ective": 1891,
      "countries": 1892,
      "sec": 1893,
      "chr": 1894,
      "expo": 1895,
      "employ": 1896,
      "evidence": 1897,
      "benef": 1898,
      "key": 1899,
      "technique": 1900,
      "analyzed": 1901,
      "rele": 1902,
      "consu": 1903,
      "identify": 1904,
      "distribution": 1905,
      "lor": 1906,
      "knowledge": 1907,
      "bu": 1908,
      "region": 1909,
      "oxy": 1910,
      "scale": 1911,
      "preval": 1912,
      "mut": 1913,
      "ni": 1914,
      "remo": 1915,
      "purpo": 1916,
      "cases": 1917,
      "nov": 1918,
      "network": 1919,
      "ult": 1920,
      "eric": 1921,
      "invol": 1922,
      "vention": 1923,
      "published": 1924,
      "inj": 1925,
      "compounds": 1926,
      "search": 1927,
      "pp": 1928,
      "like": 1929,
      "saf": 1930,
      "field": 1931,
      "cir": 1932,
      "dose": 1933,
      "previous": 1934,
      "activities": 1935,
      "lay": 1936,
      "ray": 1937,
      "food": 1938,
      "co2": 1939,
      "prog": 1940,
      "chi": 1941,
      "ator": 1942,
      "ann": 1943,
      "version": 1944,
      "power": 1945,
      "weight": 1946,
      "applications": 1947,
      "will": 1948,
      "primary": 1949,
      "ick": 1950,
      "amo": 1951,
      "prep": 1952,
      "state": 1953,
      "cardi": 1954,
      "measured": 1955,
      "mb": 1956,
      "ustr": 1957,
      "als": 1958,
      "overall": 1959,
      "world": 1960,
      "cc": 1961,
      "ga": 1962,
      "chall": 1963,
      "increasing": 1964,
      "yield": 1965,
      "old": 1966,
      "moreover": 1967,
      "regul": 1968,
      "80": 1969,
      "surve": 1970,
      "22": 1971,
      "polymer": 1972,
      "mark": 1973,
      "dens": 1974,
      "eu": 1975,
      "adj": 1976,
      "presence": 1977,
      "industr": 1978,
      "gel": 1979,
      "term": 1980,
      "mort": 1981,
      "nec": 1982,
      "place": 1983,
      "better": 1984,
      "dependent": 1985,
      "lead": 1986,
      "sible": 1987,
      "quanti": 1988,
      "pattern": 1989,
      "population": 1990,
      "efficiency": 1991,
      "gi": 1992,
      "program": 1993,
      "az": 1994,
      "atures": 1995,
      "evaluate": 1996,
      "ances": 1997,
      "real": 1998,
      "improved": 1999,
      "orig": 2000,
      "immune": 2001,
      "35": 2002,
      "abol": 2003,
      "experimental": 2004,
      "nature": 2005,
      "ily": 2006,
      "frequ": 2007,
      "istic": 2008,
      "decreased": 2009,
      "isms": 2010,
      "general": 2011,
      "environmental": 2012,
      "tur": 2013,
      "ner": 2014,
      "educ": 2015,
      "limit": 2016,
      "enhance": 2017,
      "comm": 2018,
      "good": 2019,
      "hel": 2020,
      "statis": 2021,
      "sition": 2022,
      "glu": 2023,
      "sustain": 2024,
      "ize": 2025,
      "known": 2026,
      "utions": 2027,
      "severe": 2028,
      "genetic": 2029,
      "ore": 2030,
      "contrib": 2031,
      "plant": 2032,
      "contin": 2033,
      "multiple": 2034,
      "provided": 2035,
      "aw": 2036,
      "terms": 2037,
      "orn": 2038,
      "pharm": 2039,
      "modified": 2040,
      "determined": 2041,
      "dimen": 2042,
      "resistance": 2043,
      "tool": 2044,
      "reduced": 2045,
      "dimension": 2046,
      "zer": 2047,
      "bacterial": 2048,
      "90": 2049,
      "ders": 2050,
      "copy": 2051,
      "negative": 2052,
      "detect": 2053,
      "construc": 2054,
      "spectro": 2055,
      "cry": 2056,
      "fem": 2057,
      "index": 2058,
      "recent": 2059,
      "cycl": 2060,
      "calcul": 2061,
      "bility": 2062,
      "explo": 2063,
      "technology": 2064,
      "metal": 2065,
      "survi": 2066,
      "right": 2067,
      "tration": 2068,
      "cial": 2069,
      "bus": 2070,
      "iness": 2071,
      "ially": 2072,
      "ition": 2073,
      "pti": 2074,
      "scopy": 2075,
      "difference": 2076,
      "01": 2077,
      "students": 2078,
      "global": 2079,
      "chain": 2080,
      "tissu": 2081,
      "strong": 2082,
      "21": 2083,
      "dynamic": 2084,
      "fut": 2085,
      "opti": 2086,
      "direct": 2087,
      "mag": 2088,
      "additional": 2089,
      "relation": 2090,
      "top": 2091,
      "acts": 2092,
      "exhibited": 2093,
      "asia": 2094,
      "products": 2095,
      "h2": 2096,
      "erg": 2097,
      "fin": 2098,
      "bone": 2099,
      "stage": 2100,
      "effic": 2101,
      "purpose": 2102,
      "derived": 2103,
      "26": 2104,
      "toward": 2105,
      "early": 2106,
      "matory": 2107,
      "article": 2108,
      "understand": 2109,
      "maxim": 2110,
      "exten": 2111,
      "mac": 2112,
      "thus": 2113,
      "enhanced": 2114,
      "plat": 2115,
      "medical": 2116,
      "pressure": 2117,
      "mortality": 2118,
      "load": 2119,
      "average": 2120,
      "ination": 2121,
      "final": 2122,
      "composite": 2123,
      "available": 2124,
      "thermal": 2125,
      "graphy": 2126,
      "linear": 2127,
      "bar": 2128,
      "remain": 2129,
      "membr": 2130,
      "ht": 2131,
      "metabol": 2132,
      "prevalence": 2133,
      "catalysts": 2134,
      "future": 2135,
      "spective": 2136,
      "question": 2137,
      "iter": 2138,
      "70": 2139,
      "assessment": 2140,
      "rs": 2141,
      "fa": 2142,
      "serum": 2143,
      "sample": 2144,
      "nuc": 2145,
      "play": 2146,
      "simp": 2147,
      "metric": 2148,
      "concentrations": 2149,
      "hyper": 2150,
      "microb": 2151,
      "atten": 2152,
      "liver": 2153,
      "conven": 2154,
      "anes": 2155,
      "ained": 2156,
      "prac": 2157,
      "women": 2158,
      "mus": 2159,
      "physical": 2160,
      "density": 2161,
      "conside": 2162,
      "soil": 2163,
      "sensitivity": 2164,
      "considered": 2165,
      "regression": 2166,
      "diagnosis": 2167,
      "aims": 2168,
      "pul": 2169,
      "section": 2170,
      "assay": 2171,
      "catalytic": 2172,
      "ice": 2173,
      "pan": 2174,
      "synthesis": 2175,
      "abil": 2176,
      "imple": 2177,
      "auto": 2178,
      "psy": 2179,
      "about": 2180,
      "fam": 2181,
      "five": 2182,
      "indicated": 2183,
      "efficacy": 2184,
      "guid": 2185,
      "ee": 2186,
      "tent": 2187,
      "wt": 2188,
      "produced": 2189,
      "class": 2190,
      "200": 2191,
      "nai": 2192,
      "economic": 2193,
      "behavior": 2194,
      "pecially": 2195,
      "cn": 2196,
      "especially": 2197,
      "sil": 2198,
      "hal": 2199,
      "generation": 2200,
      "position": 2201,
      "ft": 2202,
      "consi": 2203,
      "accuracy": 2204,
      "events": 2205,
      "prepared": 2206,
      "loss": 2207,
      "prin": 2208,
      "license": 2209,
      "international": 2210,
      "studied": 2211,
      "rap": 2212,
      "feed": 2213,
      "acute": 2214,
      "lant": 2215,
      "dies": 2216,
      "gs": 2217,
      "fu": 2218,
      "xy": 2219,
      "six": 2220,
      "ba": 2221,
      "pm": 2222,
      "expl": 2223,
      "differences": 2224,
      "minis": 2225,
      "capacity": 2226,
      "ov": 2227,
      "regard": 2228,
      "metry": 2229,
      "bur": 2230,
      "inflammatory": 2231,
      "optimal": 2232,
      "ible": 2233,
      "sou": 2234,
      "open": 2235,
      "pri": 2236,
      "hr": 2237,
      "promis": 2238,
      "33": 2239,
      "ans": 2240,
      "inhibit": 2241,
      "ately": 2242,
      "vices": 2243,
      "bed": 2244,
      "analyses": 2245,
      "mission": 2246,
      "ling": 2247,
      "tor": 2248,
      "io": 2249,
      "assessed": 2250,
      "accor": 2251,
      "survey": 2252,
      "pain": 2253,
      "efficient": 2254,
      "graphic": 2255,
      "discus": 2256,
      "techniques": 2257,
      "symptoms": 2258,
      "altern": 2259,
      "sized": 2260,
      "fully": 2261,
      "short": 2262,
      "29": 2263,
      "reduce": 2264,
      "stic": 2265,
      "swit": 2266,
      "75": 2267,
      "compon": 2268,
      "phosph": 2269,
      "orith": 2270,
      "continu": 2271,
      "tives": 2272,
      "algorith": 2273,
      "ost": 2274,
      "microbial": 2275,
      "consider": 2276,
      "ins": 2277,
      "adsorption": 2278,
      "moder": 2279,
      "tev": 2280,
      "plasma": 2281,
      "45": 2282,
      "hc": 2283,
      "containing": 2284,
      "enzy": 2285,
      "pig": 2286,
      "aling": 2287,
      "ause": 2288,
      "furthermore": 2289,
      "rh": 2290,
      "bat": 2291,
      "dent": 2292,
      "pal": 2293,
      "ney": 2294,
      "48": 2295,
      "being": 2296,
      "status": 2297,
      "27": 2298,
      "combination": 2299,
      "electron": 2300,
      "bil": 2301,
      "aged": 2302,
      "how": 2303,
      "amoun": 2304,
      "feren": 2305,
      "lications": 2306,
      "articles": 2307,
      "recor": 2308,
      "point": 2309,
      "cri": 2310,
      "degrad": 2311,
      "ength": 2312,
      "volu": 2313,
      "source": 2314,
      "izing": 2315,
      "her": 2316,
      "ential": 2317,
      "asian": 2318,
      "scores": 2319,
      "aneous": 2320,
      "ators": 2321,
      "fail": 2322,
      "femal": 2323,
      "reli": 2324,
      "kg": 2325,
      "pair": 2326,
      "condition": 2327,
      "ped": 2328,
      "ones": 2329,
      "emo": 2330,
      "atively": 2331,
      "detected": 2332,
      "bang": 2333,
      "rates": 2334,
      "intro": 2335,
      "gies": 2336,
      "highly": 2337,
      "intr": 2338,
      "uses": 2339,
      "separ": 2340,
      "dig": 2341,
      "practi": 2342,
      "weeks": 2343,
      "resid": 2344,
      "mechanical": 2345,
      "occur": 2346,
      "survival": 2347,
      "questionnai": 2348,
      "influence": 2349,
      "36": 2350,
      "polic": 2351,
      "baseline": 2352,
      "improvement": 2353,
      "examined": 2354,
      "yo": 2355,
      "controlled": 2356,
      "received": 2357,
      "vo": 2358,
      "adminis": 2359,
      "kid": 2360,
      "bs": 2361,
      "contr": 2362,
      "den": 2363,
      "sof": 2364,
      "because": 2365,
      "areas": 2366,
      "responses": 2367,
      "hypo": 2368,
      "combined": 2369,
      "according": 2370,
      "cular": 2371,
      "frame": 2372,
      "collis": 2373,
      "pathogen": 2374,
      "lip": 2375,
      "nanop": 2376,
      "gluco": 2377,
      "wide": 2378,
      "diseases": 2379,
      "although": 2380,
      "integrated": 2381,
      "excl": 2382,
      "problem": 2383,
      "38": 2384,
      "ison": 2385,
      "commend": 2386,
      "ley": 2387,
      "did": 2388,
      "tum": 2389,
      "recommend": 2390,
      "step": 2391,
      "operative": 2392,
      "hist": 2393,
      "sus": 2394,
      "mented": 2395,
      "chronic": 2396,
      "surger": 2397,
      "viral": 2398,
      "business": 2399,
      "interest": 2400,
      "34": 2401,
      "bel": 2402,
      "healthy": 2403,
      "lying": 2404,
      "rice": 2405,
      "bro": 2406,
      "tested": 2407,
      "media": 2408,
      "product": 2409,
      "exposure": 2410,
      "percent": 2411,
      "peop": 2412,
      "structural": 2413,
      "isolated": 2414,
      "idi": 2415,
      "perce": 2416,
      "selected": 2417,
      "particular": 2418,
      "resour": 2419,
      "whereas": 2420,
      "kidney": 2421,
      "fs": 2422,
      "fat": 2423,
      "stor": 2424,
      "mid": 2425,
      "eness": 2426,
      "isto": 2427,
      "squ": 2428,
      "tit": 2429,
      "outcome": 2430,
      "followed": 2431,
      "challeng": 2432,
      "americ": 2433,
      "ists": 2434,
      "coh": 2435,
      "nr": 2436,
      "antioxid": 2437,
      "rapid": 2438,
      "people": 2439,
      "binding": 2440,
      "correlation": 2441,
      "education": 2442,
      "conventional": 2443,
      "put": 2444,
      "screening": 2445,
      "provides": 2446,
      "surgery": 2447,
      "following": 2448,
      "cut": 2449,
      "environment": 2450,
      "ering": 2451,
      "toxicity": 2452,
      "correspon": 2453,
      "mas": 2454,
      "before": 2455,
      "nm": 2456,
      "affect": 2457,
      "proteins": 2458,
      "sex": 2459,
      "length": 2460,
      "stre": 2461,
      "cand": 2462,
      "evaluation": 2463,
      "retro": 2464,
      "olution": 2465,
      "confirmed": 2466,
      "fab": 2467,
      "mechanism": 2468,
      "wa": 2469,
      "brid": 2470,
      "ban": 2471,
      "ables": 2472,
      "activation": 2473,
      "median": 2474,
      "vaccine": 2475,
      "transfer": 2476,
      "2017": 2477,
      "cryst": 2478,
      "safety": 2479,
      "medic": 2480,
      "greater": 2481,
      "ector": 2482,
      "still": 2483,
      "sem": 2484,
      "aro": 2485,
      "target": 2486,
      "lar": 2487,
      "pto": 2488,
      "link": 2489,
      "hand": 2490,
      "community": 2491,
      "99": 2492,
      "lex": 2493,
      "crip": 2494,
      "infec": 2495,
      "same": 2496,
      "structures": 2497,
      "membrane": 2498,
      "composites": 2499,
      "oxygen": 2500,
      "ket": 2501,
      "las": 2502,
      "access": 2503,
      "adi": 2504,
      "criter": 2505,
      "randomized": 2506,
      "dm": 2507,
      "minim": 2508,
      "eral": 2509,
      "ways": 2510,
      "predict": 2511,
      "matic": 2512,
      "pcr": 2513,
      "sk": 2514,
      "she": 2515,
      "commer": 2516,
      "promising": 2517,
      "instit": 2518,
      "kok": 2519,
      "adjust": 2520,
      "formul": 2521,
      "ification": 2522,
      "tol": 2523,
      "37": 2524,
      "oste": 2525,
      "introduc": 2526,
      "alternative": 2527,
      "diab": 2528,
      "bangkok": 2529,
      "kine": 2530,
      "hydr": 2531,
      "gover": 2532,
      "cause": 2533,
      "observ": 2534,
      "ei": 2535,
      "boson": 2536,
      "times": 2537,
      "inary": 2538,
      "tered": 2539,
      "strategies": 2540,
      "vitro": 2541,
      "zerland": 2542,
      "switzerland": 2543,
      "practice": 2544,
      "upl": 2545,
      "green": 2546,
      "science": 2547,
      "ester": 2548,
      "alk": 2549,
      "mand": 2550,
      "sit": 2551,
      "adverse": 2552,
      "react": 2553,
      "allow": 2554,
      "thanol": 2555,
      "medium": 2556,
      "cov": 2557,
      "wiley": 2558,
      "ethyl": 2559,
      "ject": 2560,
      "person": 2561,
      "engine": 2562,
      "meta": 2563,
      "maximum": 2564,
      "mixed": 2565,
      "ier": 2566,
      "itation": 2567,
      "carri": 2568,
      "down": 2569,
      "proto": 2570,
      "copyright": 2571,
      "tissue": 2572,
      "chul": 2573,
      "tral": 2574,
      "solid": 2575,
      "31": 2576,
      "uv": 2577,
      "framework": 2578,
      "initial": 2579,
      "proced": 2580,
      "mechanisms": 2581,
      "candid": 2582,
      "certain": 2583,
      "removal": 2584,
      "ences": 2585,
      "mption": 2586,
      "estab": 2587,
      "establish": 2588,
      "32": 2589,
      "cop": 2590,
      "omy": 2591,
      "nt": 2592,
      "rat": 2593,
      "lik": 2594,
      "charge": 2595,
      "across": 2596,
      "cho": 2597,
      "bacteria": 2598,
      "nu": 2599,
      "training": 2600,
      "attrib": 2601,
      "phil": 2602,
      "dog": 2603,
      "cult": 2604,
      "ocy": 2605,
      "icial": 2606,
      "processes": 2607,
      "heter": 2608,
      "domain": 2609,
      "volume": 2610,
      "comparison": 2611,
      "antioxidant": 2612,
      "interaction": 2613,
      "jects": 2614,
      "synthesized": 2615,
      "lat": 2616,
      "rang": 2617,
      "ise": 2618,
      "intervention": 2619,
      "interval": 2620,
      "mach": 2621,
      "whe": 2622,
      "adul": 2623,
      "caused": 2624,
      "features": 2625,
      "problems": 2626,
      "korn": 2627,
      "required": 2628,
      "hd": 2629,
      "silic": 2630,
      "incidence": 2631,
      "govern": 2632,
      "site": 2633,
      "shap": 2634,
      "electric": 2635,
      "lung": 2636,
      "ow": 2637,
      "uble": 2638,
      "ides": 2639,
      "liqu": 2640,
      "ry": 2641,
      "cellul": 2642,
      "measurement": 2643,
      "conversion": 2644,
      "week": 2645,
      "rt": 2646,
      "amount": 2647,
      "tiveness": 2648,
      "understanding": 2649,
      "enter": 2650,
      "iso": 2651,
      "literature": 2652,
      "pharmac": 2653,
      "monitor": 2654,
      "els": 2655,
      "ethanol": 2656,
      "read": 2657,
      "help": 2658,
      "recept": 2659,
      "suggested": 2660,
      "fibro": 2661,
      "commercial": 2662,
      "nitro": 2663,
      "thal": 2664,
      "3d": 2665,
      "prov": 2666,
      "characterized": 2667,
      "layer": 2668,
      "least": 2669,
      "innov": 2670,
      "american": 2671,
      "itable": 2672,
      "skin": 2673,
      "ined": 2674,
      "represent": 2675,
      "failure": 2676,
      "fish": 2677,
      "ules": 2678,
      "plan": 2679,
      "testing": 2680,
      "classification": 2681,
      "collisions": 2682,
      "reh": 2683,
      "mit": 2684,
      "organic": 2685,
      "family": 2686,
      "pen": 2687,
      "utes": 2688,
      "systematic": 2689,
      "take": 2690,
      "uk": 2691,
      "65": 2692,
      "appropri": 2693,
      "isolates": 2694,
      "tt": 2695,
      "incor": 2696,
      "confidence": 2697,
      "death": 2698,
      "98": 2699,
      "resulting": 2700,
      "nanoparticles": 2701,
      "concer": 2702,
      "oma": 2703,
      "wid": 2704,
      "strains": 2705,
      "simple": 2706,
      "particles": 2707,
      "might": 2708,
      "storage": 2709,
      "since": 2710,
      "imens": 2711,
      "stimul": 2712,
      "nucle": 2713,
      "liquid": 2714,
      "consumption": 2715,
      "pc": 2716,
      "affected": 2717,
      "satis": 2718,
      "ason": 2719,
      "essential": 2720,
      "iving": 2721,
      "err": 2722,
      "atric": 2723,
      "issu": 2724,
      "criteria": 2725,
      "adults": 2726,
      "orders": 2727,
      "experiment": 2728,
      "osis": 2729,
      "sum": 2730,
      "buil": 2731,
      "ference": 2732,
      "central": 2733,
      "alongkorn": 2734,
      "algorithm": 2735,
      "either": 2736,
      "chulalongkorn": 2737,
      "chlor": 2738,
      "infected": 2739,
      "prediction": 2740,
      "shown": 2741,
      "sig": 2742,
      "chrom": 2743,
      "pressed": 2744,
      "controls": 2745,
      "41": 2746,
      "emic": 2747,
      "sustainable": 2748,
      "cms": 2749,
      "nas": 2750,
      "ching": 2751,
      "ole": 2752,
      "scan": 2753,
      "patterns": 2754,
      "gal": 2755,
      "ury": 2756,
      "describ": 2757,
      "best": 2758,
      "effectiveness": 2759,
      "tests": 2760,
      "achieved": 2761,
      "istry": 2762,
      "critical": 2763,
      "flo": 2764,
      "tio2": 2765,
      "individuals": 2766,
      "solutions": 2767,
      "extraction": 2768,
      "employed": 2769,
      "mel": 2770,
      "ged": 2771,
      "tery": 2772,
      "pla": 2773,
      "recovery": 2774,
      "cohort": 2775,
      "ores": 2776,
      "thir": 2777,
      "magne": 2778,
      "44": 2779,
      "coupl": 2780,
      "emis": 2781,
      "ool": 2782,
      "ably": 2783,
      "tas": 2784,
      "bound": 2785,
      "deli": 2786,
      "cour": 2787,
      "sars": 2788,
      "exis": 2789,
      "male": 2790,
      "older": 2791,
      "simulation": 2792,
      "service": 2793,
      "usive": 2794,
      "anim": 2795,
      "renal": 2796,
      "strategy": 2797,
      "therapeu": 2798,
      "recogn": 2799,
      "bor": 2800,
      "policy": 2801,
      "rub": 2802,
      "tiation": 2803,
      "them": 2804,
      "sensor": 2805,
      "flex": 2806,
      "jour": 2807,
      "anol": 2808,
      "image": 2809,
      "42": 2810,
      "prob": 2811,
      "possible": 2812,
      "degradation": 2813,
      "force": 2814,
      "host": 2815,
      "focus": 2816,
      "ateral": 2817,
      "depression": 2818,
      "mice": 2819,
      "appropriate": 2820,
      "nit": 2821,
      "rich": 2822,
      "add": 2823,
      "theory": 2824,
      "glucose": 2825,
      "regarding": 2826,
      "guidel": 2827,
      "tradi": 2828,
      "leading": 2829,
      "questionnaire": 2830,
      "sd": 2831,
      "successfully": 2832,
      "datab": 2833,
      "39": 2834,
      "bers": 2835,
      "teach": 2836,
      "stric": 2837,
      "ey": 2838,
      "heat": 2839,
      "supple": 2840,
      "asis": 2841,
      "dry": 2842,
      "original": 2843,
      "female": 2844,
      "incorpor": 2845,
      "dop": 2846,
      "ics": 2847,
      "images": 2848,
      "prevent": 2849,
      "shows": 2850,
      "severity": 2851,
      "hybrid": 2852,
      "vement": 2853,
      "presents": 2854,
      "cellular": 2855,
      "variables": 2856,
      "assis": 2857,
      "sites": 2858,
      "sources": 2859,
      "situ": 2860,
      "lang": 2861,
      "developing": 2862,
      "duce": 2863,
      "relative": 2864,
      "existing": 2865,
      "nur": 2866,
      "radiation": 2867,
      "emission": 2868,
      "sity": 2869,
      "journal": 2870,
      "hor": 2871,
      "drome": 2872,
      "syndrome": 2873,
      "bc": 2874,
      "fill": 2875,
      "pepti": 2876,
      "versus": 2877,
      "frequency": 2878,
      "construction": 2879,
      "ually": 2880,
      "tumor": 2881,
      "bp": 2882,
      "culture": 2883,
      "diagnostic": 2884,
      "ets": 2885,
      "cies": 2886,
      "electrochemical": 2887,
      "lipid": 2888,
      "tax": 2889,
      "ieee": 2890,
      "sequence": 2891,
      "aer": 2892,
      "base": 2893,
      "unit": 2894,
      "poor": 2895,
      "secondary": 2896,
      "da": 2897,
      "taneous": 2898,
      "inform": 2899,
      "examine": 2900,
      "suitable": 2901,
      "transform": 2902,
      "films": 2903,
      "96": 2904,
      "macro": 2905,
      "sle": 2906,
      "profil": 2907,
      "having": 2908,
      "55": 2909,
      "cycle": 2910,
      "breast": 2911,
      "biomass": 2912,
      "eas": 2913,
      "morphology": 2914,
      "mers": 2915,
      "calci": 2916,
      "ered": 2917,
      "ato": 2918,
      "lysis": 2919,
      "adop": 2920,
      "biomark": 2921,
      "dimensional": 2922,
      "dogs": 2923,
      "46": 2924,
      "chol": 2925,
      "47": 2926,
      "enced": 2927,
      "exer": 2928,
      "space": 2929,
      "approxim": 2930,
      "numer": 2931,
      "hetero": 2932,
      "platform": 2933,
      "sl": 2934,
      "dental": 2935,
      "bul": 2936,
      "cas": 2937,
      "cellulose": 2938,
      "identification": 2939,
      "decrease": 2940,
      "spectroscopy": 2941,
      "diversity": 2942,
      "abor": 2943,
      "useful": 2944,
      "coron": 2945,
      "decay": 2946,
      "therapeutic": 2947,
      "adap": 2948,
      "press": 2949,
      "transcrip": 2950,
      "intra": 2951,
      "nutri": 2952,
      "thick": 2953,
      "particle": 2954,
      "ports": 2955,
      "fb": 2956,
      "san": 2957,
      "ina": 2958,
      "facil": 2959,
      "monitoring": 2960,
      "cence": 2961,
      "intest": 2962,
      "cogn": 2963,
      "modul": 2964,
      "2016": 2965,
      "43": 2966,
      "ams": 2967,
      "whether": 2968,
      "72": 2969,
      "rix": 2970,
      "ects": 2971,
      "functions": 2972,
      "far": 2973,
      "lack": 2974,
      "alco": 2975,
      "ster": 2976,
      "prop": 2977,
      "85": 2978,
      "biological": 2979,
      "decis": 2980,
      "quantit": 2981,
      "visual": 2982,
      "industry": 2983,
      "machine": 2984,
      "deep": 2985,
      "house": 2986,
      "iii": 2987,
      "hb": 2988,
      "setting": 2989,
      "dos": 2990,
      "involved": 2991,
      "receptor": 2992,
      "clust": 2993,
      "geno": 2994,
      "disorders": 2995,
      "pand": 2996,
      "comput": 2997,
      "center": 2998,
      "spe": 2999,
      "corresponding": 3000,
      "would": 3001,
      "atin": 3002,
      "agent": 3003,
      "suff": 3004,
      "lation": 3005,
      "inant": 3006,
      "ultr": 3007,
      "antimicrobial": 3008,
      "pathway": 3009,
      "phenol": 3010,
      "alcohol": 3011,
      "fung": 3012,
      "toge": 3013,
      "together": 3014,
      "doc": 3015,
      "device": 3016,
      "oxidative": 3017,
      "online": 3018,
      "indicate": 3019,
      "school": 3020,
      "interactions": 3021,
      "investigation": 3022,
      "hem": 3023,
      "compare": 3024,
      "vaccination": 3025,
      "aque": 3026,
      "itive": 3027,
      "objectives": 3028,
      "subjects": 3029,
      "coc": 3030,
      "49": 3031,
      "o3": 3032,
      "astic": 3033,
      "regions": 3034,
      "film": 3035,
      "ally": 3036,
      "complete": 3037,
      "ensive": 3038,
      "lymp": 3039,
      "traditional": 3040,
      "bac": 3041,
      "cp": 3042,
      "cust": 3043,
      "moderate": 3044,
      "ply": 3045,
      "sia": 3046,
      "organization": 3047,
      "transport": 3048,
      "67": 3049,
      "loading": 3050,
      "matrix": 3051,
      "custom": 3052,
      "anth": 3053,
      "respir": 3054,
      "amino": 3055,
      "activated": 3056,
      "coli": 3057,
      "toxic": 3058,
      "fas": 3059,
      "mart": 3060,
      "fit": 3061,
      "colo": 3062,
      "maintain": 3063,
      "aily": 3064,
      "van": 3065,
      "02": 3066,
      "mation": 3067,
      "53": 3068,
      "daily": 3069,
      "ka": 3070,
      "compe": 3071,
      "chemo": 3072,
      "ino": 3073,
      "toler": 3074,
      "rubber": 3075,
      "don": 3076,
      "pu": 3077,
      "concept": 3078,
      "itis": 3079,
      "enro": 3080,
      "agg": 3081,
      "defined": 3082,
      "pandemic": 3083,
      "services": 3084,
      "distributed": 3085,
      "find": 3086,
      "histo": 3087,
      "propor": 3088,
      "independent": 3089,
      "eg": 3090,
      "har": 3091,
      "inity": 3092,
      "carcin": 3093,
      "ret": 3094,
      "oly": 3095,
      "demand": 3096,
      "hs": 3097,
      "ibility": 3098,
      "immuno": 3099,
      "require": 3100,
      "trials": 3101,
      "ule": 3102,
      "ascular": 3103,
      "resulted": 3104,
      "measurements": 3105,
      "interview": 3106,
      "sequencing": 3107,
      "protocol": 3108,
      "aring": 3109,
      "neur": 3110,
      "supply": 3111,
      "mediated": 3112,
      "dam": 3113,
      "compreh": 3114,
      "000": 3115,
      "components": 3116,
      "langu": 3117,
      "ired": 3118,
      "biof": 3119,
      "half": 3120,
      "licensee": 3121,
      "56": 3122,
      "sn": 3123,
      "arti": 3124,
      "sep": 3125,
      "agents": 3126,
      "advanced": 3127,
      "infections": 3128,
      "73": 3129,
      "zn": 3130,
      "stable": 3131,
      "opto": 3132,
      "hydroxy": 3133,
      "rd": 3134,
      "labor": 3135,
      "building": 3136,
      "subst": 3137,
      "location": 3138,
      "ito": 3139,
      "sym": 3140,
      "etes": 3141,
      "composition": 3142,
      "fiber": 3143,
      "particularly": 3144,
      "ints": 3145,
      "correlated": 3146,
      "drugs": 3147,
      "root": 3148,
      "regulation": 3149,
      "pac": 3150,
      "ressive": 3151,
      "smo": 3152,
      "context": 3153,
      "eration": 3154,
      "resistant": 3155,
      "lig": 3156,
      "hour": 3157,
      "partial": 3158,
      "contamin": 3159,
      "generated": 3160,
      "hes": 3161,
      "wall": 3162,
      "ery": 3163,
      "plants": 3164,
      "reducing": 3165,
      "fabric": 3166,
      "lac": 3167,
      "rein": 3168,
      "transmission": 3169,
      "crete": 3170,
      "pathways": 3171,
      "designed": 3172,
      "enzyme": 3173,
      "97": 3174,
      "uter": 3175,
      "great": 3176,
      "oids": 3177,
      "ton": 3178,
      "measures": 3179,
      "release": 3180,
      "diabetes": 3181,
      "calcium": 3182,
      "subsequ": 3183,
      "needed": 3184,
      "relev": 3185,
      "call": 3186,
      "ws": 3187,
      "complications": 3188,
      "operation": 3189,
      "iting": 3190,
      "practic": 3191,
      "mir": 3192,
      "surg": 3193,
      "vit": 3194,
      "ratios": 3195,
      "inhibition": 3196,
      "mdpi": 3197,
      "likely": 3198,
      "market": 3199,
      "gut": 3200,
      "esis": 3201,
      "specimens": 3202,
      "depth": 3203,
      "supported": 3204,
      "antibody": 3205,
      "transplant": 3206,
      "respiratory": 3207,
      "zinc": 3208,
      "tak": 3209,
      "cognitive": 3210,
      "astro": 3211,
      "fraction": 3212,
      "intestinal": 3213,
      "bd": 3214,
      "sin": 3215,
      "insig": 3216,
      "produce": 3217,
      "series": 3218,
      "operating": 3219,
      "llc": 3220,
      "ologies": 3221,
      "towards": 3222,
      "66": 3223,
      "bic": 3224,
      "placement": 3225,
      "internal": 3226,
      "fluores": 3227,
      "profiles": 3228,
      "map": 3229,
      "quark": 3230,
      "ella": 3231,
      "medicine": 3232,
      "methodology": 3233,
      "brain": 3234,
      "78": 3235,
      "restric": 3236,
      "tation": 3237,
      "near": 3238,
      "few": 3239,
      "publishing": 3240,
      "sectional": 3241,
      "sequences": 3242,
      "obacter": 3243,
      "58": 3244,
      "68": 3245,
      "ophy": 3246,
      "duration": 3247,
      "color": 3248,
      "band": 3249,
      "jap": 3250,
      "mt": 3251,
      "seg": 3252,
      "emerg": 3253,
      "disper": 3254,
      "finally": 3255,
      "71": 3256,
      "fusion": 3257,
      "tub": 3258,
      "made": 3259,
      "shr": 3260,
      "additionally": 3261,
      "chemistry": 3262,
      "cam": 3263,
      "faction": 3264,
      "star": 3265,
      "specificity": 3266,
      "sulf": 3267,
      "theast": 3268,
      "electrode": 3269,
      "surgical": 3270,
      "apopto": 3271,
      "pregn": 3272,
      "continuous": 3273,
      "aqueous": 3274,
      "accept": 3275,
      "around": 3276,
      "hydrogel": 3277,
      "prevention": 3278,
      "break": 3279,
      "delivery": 3280,
      "atives": 3281,
      "evolution": 3282,
      "fc": 3283,
      "reson": 3284,
      "antibio": 3285,
      "oxidation": 3286,
      "farm": 3287,
      "conver": 3288,
      "quantitative": 3289,
      "63": 3290,
      "predicted": 3291,
      "approaches": 3292,
      "neutral": 3293,
      "previously": 3294,
      "ious": 3295,
      "inated": 3296,
      "ancy": 3297,
      "see": 3298,
      "diesel": 3299,
      "abs": 3300,
      "imaging": 3301,
      "prior": 3302,
      "epi": 3303,
      "sorb": 3304,
      "reactor": 3305,
      "joh": 3306,
      "tle": 3307,
      "demonstrate": 3308,
      "benefits": 3309,
      "injury": 3310,
      "plac": 3311,
      "datase": 3312,
      "elds": 3313,
      "igr": 3314,
      "processing": 3315,
      "pheno": 3316,
      "statistically": 3317,
      "clear": 3318,
      "aug": 3319,
      "trop": 3320,
      "cf": 3321,
      "clim": 3322,
      "osity": 3323,
      "causes": 3324,
      "calculated": 3325,
      "province": 3326,
      "stoc": 3327,
      "ified": 3328,
      "grade": 3329,
      "jo": 3330,
      "uary": 3331,
      "arr": 3332,
      "dys": 3333,
      "dynamics": 3334,
      "attit": 3335,
      "extracted": 3336,
      "pare": 3337,
      "net": 3338,
      "qual": 3339,
      "genome": 3340,
      "estimated": 3341,
      "given": 3342,
      "john": 3343,
      "direc": 3344,
      "chann": 3345,
      "genus": 3346,
      "popul": 3347,
      "dium": 3348,
      "ron": 3349,
      "improving": 3350,
      "sca": 3351,
      "heav": 3352,
      "double": 3353,
      "gap": 3354,
      "smart": 3355,
      "head": 3356,
      "upper": 3357,
      "descrip": 3358,
      "52": 3359,
      "cate": 3360,
      "even": 3361,
      "uring": 3362,
      "agree": 3363,
      "magnetic": 3364,
      "88": 3365,
      "hard": 3366,
      "injection": 3367,
      "rad": 3368,
      "refl": 3369,
      "demo": 3370,
      "obes": 3371,
      "licence": 3372,
      "fluid": 3373,
      "administration": 3374,
      "challenges": 3375,
      "plastic": 3376,
      "flav": 3377,
      "cro": 3378,
      "oles": 3379,
      "adult": 3380,
      "absorption": 3381,
      "tomy": 3382,
      "aqu": 3383,
      "endo": 3384,
      "optimization": 3385,
      "sat": 3386,
      "graphene": 3387,
      "bile": 3388,
      "simultaneous": 3389,
      "categ": 3390,
      "migr": 3391,
      "sea": 3392,
      "ogenic": 3393,
      "foc": 3394,
      "signal": 3395,
      "thel": 3396,
      "princi": 3397,
      "ings": 3398,
      "geo": 3399,
      "sedi": 3400,
      "practical": 3401,
      "vector": 3402,
      "ucial": 3403,
      "transition": 3404,
      "experience": 3405,
      "wastewater": 3406,
      "explore": 3407,
      "gf": 3408,
      "bodies": 3409,
      "recorded": 3410,
      "76": 3411,
      "implant": 3412,
      "differential": 3413,
      "colon": 3414,
      "whole": 3415,
      "cise": 3416,
      "exclusive": 3417,
      "practices": 3418,
      "stro": 3419,
      "selection": 3420,
      "thickness": 3421,
      "enrolled": 3422,
      "lag": 3423,
      "percentage": 3424,
      "crystall": 3425,
      "oth": 3426,
      "rup": 3427,
      "tu": 3428,
      "μm": 3429,
      "points": 3430,
      "graf": 3431,
      "92": 3432,
      "urban": 3433,
      "ellular": 3434,
      "living": 3435,
      "sugges": 3436,
      "onal": 3437,
      "resources": 3438,
      "government": 3439,
      "83": 3440,
      "diet": 3441,
      "illus": 3442,
      "collabor": 3443,
      "pite": 3444,
      "widely": 3445,
      "described": 3446,
      "language": 3447,
      "lines": 3448,
      "ili": 3449,
      "despite": 3450,
      "pse": 3451,
      "room": 3452,
      "prepar": 3453,
      "tren": 3454,
      "users": 3455,
      "chon": 3456,
      "achieve": 3457,
      "74": 3458,
      "hp": 3459,
      "ker": 3460,
      "signaling": 3461,
      "fran": 3462,
      "gar": 3463,
      "implementation": 3464,
      "51": 3465,
      "tig": 3466,
      "abo": 3467,
      "microscopy": 3468,
      "accum": 3469,
      "softw": 3470,
      "infr": 3471,
      "characterization": 3472,
      "profile": 3473,
      "consistent": 3474,
      "psych": 3475,
      "software": 3476,
      "86": 3477,
      "ano": 3478,
      "gender": 3479,
      "contact": 3480,
      "tn": 3481,
      "limits": 3482,
      "importance": 3483,
      "necess": 3484,
      "excell": 3485,
      "thern": 3486,
      "estic": 3487,
      "seven": 3488,
      "acids": 3489,
      "block": 3490,
      "iatric": 3491,
      "prolif": 3492,
      "disorder": 3493,
      "cru": 3494,
      "equation": 3495,
      "advant": 3496,
      "regulated": 3497,
      "pseud": 3498,
      "wes": 3499,
      "blend": 3500,
      "distinc": 3501,
      "engineering": 3502,
      "fund": 3503,
      "nps": 3504,
      "neural": 3505,
      "angle": 3506,
      "experiments": 3507,
      "contrast": 3508,
      "concrete": 3509,
      "dri": 3510,
      "propose": 3511,
      "decision": 3512,
      "hi": 3513,
      "jet": 3514,
      "multiv": 3515,
      "94": 3516,
      "ben": 3517,
      "pot": 3518,
      "selec": 3519,
      "defici": 3520,
      "reach": 3521,
      "att": 3522,
      "deg": 3523,
      "antigen": 3524,
      "nitrogen": 3525,
      "mia": 3526,
      "deriv": 3527,
      "shape": 3528,
      "multivari": 3529,
      "ls": 3530,
      "ontal": 3531,
      "creative": 3532,
      "mainly": 3533,
      "expected": 3534,
      "digital": 3535,
      "04": 3536,
      "gmb": 3537,
      "divid": 3538,
      "treatments": 3539,
      "event": 3540,
      "logical": 3541,
      "history": 3542,
      "carried": 3543,
      "disco": 3544,
      "distance": 3545,
      "tun": 3546,
      "sons": 3547,
      "become": 3548,
      "attention": 3549,
      "fuel": 3550,
      "adjusted": 3551,
      "populations": 3552,
      "institute": 3553,
      "sleep": 3554,
      "ergen": 3555,
      "compris": 3556,
      "ift": 3557,
      "paras": 3558,
      "diffic": 3559,
      "endos": 3560,
      "behaviors": 3561,
      "chito": 3562,
      "facilit": 3563,
      "impacts": 3564,
      "93": 3565,
      "item": 3566,
      "lept": 3567,
      "alysis": 3568,
      "scanning": 3569,
      "heavy": 3570,
      "jan": 3571,
      "mr": 3572,
      "sts": 3573,
      "let": 3574,
      "currence": 3575,
      "guidelines": 3576,
      "carcinoma": 3577,
      "degree": 3578,
      "54": 3579,
      "analyze": 3580,
      "networks": 3581,
      "glut": 3582,
      "approximately": 3583,
      "last": 3584,
      "zing": 3585,
      "colum": 3586,
      "electronic": 3587,
      "intensity": 3588,
      "southeast": 3589,
      "gmbh": 3590,
      "tay": 3591,
      "alter": 3592,
      "aria": 3593,
      "inflammation": 3594,
      "reliability": 3595,
      "chitosan": 3596,
      "thin": 3597,
      "increases": 3598,
      "benefit": 3599,
      "wave": 3600,
      "tb": 3601,
      "ancing": 3602,
      "const": 3603,
      "fix": 3604,
      "eight": 3605,
      "zo": 3606,
      "sibility": 3607,
      "wound": 3608,
      "ging": 3609,
      "theore": 3610,
      "fatty": 3611,
      "ran": 3612,
      "bot": 3613,
      "sensitive": 3614,
      "discussed": 3615,
      "shear": 3616,
      "francis": 3617,
      "core": 3618,
      "industrial": 3619,
      "64": 3620,
      "accoun": 3621,
      "devices": 3622,
      "vered": 3623,
      "biop": 3624,
      "east": 3625,
      "gam": 3626,
      "elev": 3627,
      "comparable": 3628,
      "57": 3629,
      "59": 3630,
      "μg": 3631,
      "tour": 3632,
      "acellular": 3633,
      "currently": 3634,
      "taylor": 3635,
      "late": 3636,
      "mn": 3637,
      "agric": 3638,
      "exper": 3639,
      "peak": 3640,
      "extracts": 3641,
      "interesting": 3642,
      "states": 3643,
      "prospective": 3644,
      "full": 3645,
      "utilization": 3646,
      "cad": 3647,
      "acade": 3648,
      "polar": 3649,
      "protective": 3650,
      "logistic": 3651,
      "elder": 3652,
      "abund": 3653,
      "crucial": 3654,
      "variation": 3655,
      "excellent": 3656,
      "went": 3657,
      "reference": 3658,
      "receiving": 3659,
      "selectivity": 3660,
      "gastro": 3661,
      "orb": 3662,
      "ised": 3663,
      "physi": 3664,
      "diagnosed": 3665,
      "appear": 3666,
      "ash": 3667,
      "mono": 3668,
      "recently": 3669,
      "procedure": 3670,
      "fall": 3671,
      "wild": 3672,
      "methanol": 3673,
      "lesions": 3674,
      "sto": 3675,
      "gev": 3676,
      "invas": 3677,
      "glycer": 3678,
      "recru": 3679,
      "hepati": 3680,
      "inhibitory": 3681,
      "component": 3682,
      "ef": 3683,
      "stru": 3684,
      "predictive": 3685,
      "onto": 3686,
      "home": 3687,
      "forming": 3688,
      "coccus": 3689,
      "thelial": 3690,
      "cum": 3691,
      "linked": 3692,
      "established": 3693,
      "lympho": 3694,
      "62": 3695,
      "hpv": 3696,
      "adoles": 3697,
      "making": 3698,
      "potentially": 3699,
      "statistical": 3700,
      "vul": 3701,
      "atom": 3702,
      "uncertain": 3703,
      "perceived": 3704,
      "hepatitis": 3705,
      "haz": 3706,
      "benz": 3707,
      "dle": 3708,
      "tension": 3709,
      "separation": 3710,
      "erior": 3711,
      "row": 3712,
      "stabil": 3713,
      "phylo": 3714,
      "rob": 3715,
      "underwent": 3716,
      "surfact": 3717,
      "repe": 3718,
      "devi": 3719,
      "adhes": 3720,
      "utilized": 3721,
      "82": 3722,
      "eding": 3723,
      "implications": 3724,
      "regis": 3725,
      "healthcare": 3726,
      "fold": 3727,
      "vision": 3728,
      "perm": 3729,
      "income": 3730,
      "cip": 3731,
      "substrate": 3732,
      "workers": 3733,
      "77": 3734,
      "hig": 3735,
      "hold": 3736,
      "introduction": 3737,
      "ids": 3738,
      "agen": 3739,
      "associations": 3740,
      "mito": 3741,
      "m2": 3742,
      "ensis": 3743,
      "shell": 3744,
      "located": 3745,
      "hypothe": 3746,
      "lact": 3747,
      "indicating": 3748,
      "electrical": 3749,
      "87": 3750,
      "mrna": 3751,
      "nine": 3752,
      "commonly": 3753,
      "satisfaction": 3754,
      "ng": 3755,
      "run": 3756,
      "cats": 3757,
      "barri": 3758,
      "remains": 3759,
      "comprehensive": 3760,
      "elderly": 3761,
      "sac": 3762,
      "tin": 3763,
      "abnormal": 3764,
      "modeling": 3765,
      "namely": 3766,
      "upon": 3767,
      "stroke": 3768,
      "boost": 3769,
      "relatively": 3770,
      "hazard": 3771,
      "instru": 3772,
      "emul": 3773,
      "interven": 3774,
      "volt": 3775,
      "initi": 3776,
      "screen": 3777,
      "relationships": 3778,
      "progression": 3779,
      "03": 3780,
      "user": 3781,
      "mutations": 3782,
      "shrimp": 3783,
      "past": 3784,
      "moment": 3785,
      "iron": 3786,
      "sodium": 3787,
      "english": 3788,
      "relevant": 3789,
      "western": 3790,
      "kne": 3791,
      "correc": 3792,
      "country": 3793,
      "synthetic": 3794,
      "cb": 3795,
      "resh": 3796,
      "weak": 3797,
      "ched": 3798,
      "pha": 3799,
      "bran": 3800,
      "aves": 3801,
      "comparing": 3802,
      "middle": 3803,
      "84": 3804,
      "zation": 3805,
      "constrain": 3806,
      "selective": 3807,
      "electroly": 3808,
      "reviewed": 3809,
      "error": 3810,
      "laboratory": 3811,
      "analytical": 3812,
      "attenu": 3813,
      "agreement": 3814,
      "above": 3815,
      "uth": 3816,
      "parameter": 3817,
      "occurred": 3818,
      "susce": 3819,
      "fav": 3820,
      "left": 3821,
      "matter": 3822,
      "79": 3823,
      "mpa": 3824,
      "working": 3825,
      "aggreg": 3826,
      "divided": 3827,
      "suscepti": 3828,
      "systemic": 3829,
      "suggesting": 3830,
      "origin": 3831,
      "stream": 3832,
      "suffici": 3833,
      "higgs": 3834,
      "iety": 3835,
      "retrospective": 3836,
      "69": 3837,
      "fig": 3838,
      "interpre": 3839,
      "differentiation": 3840,
      "promote": 3841,
      "fine": 3842,
      "vary": 3843,
      "thy": 3844,
      "emia": 3845,
      "include": 3846,
      "balance": 3847,
      "nd": 3848,
      "diame": 3849,
      "opath": 3850,
      "aki": 3851,
      "ethylene": 3852,
      "alone": 3853,
      "feas": 3854,
      "scen": 3855,
      "muscle": 3856,
      "dl": 3857,
      "lps": 3858,
      "lumin": 3859,
      "acqu": 3860,
      "superi": 3861,
      "determination": 3862,
      "resource": 3863,
      "ake": 3864,
      "vation": 3865,
      "uration": 3866,
      "morphological": 3867,
      "turn": 3868,
      "aceu": 3869,
      "manu": 3870,
      "variants": 3871,
      "markers": 3872,
      "zy": 3873,
      "ologic": 3874,
      "antibodies": 3875,
      "ometric": 3876,
      "worldwide": 3877,
      "chromato": 3878,
      "categor": 3879,
      "superior": 3880,
      "anal": 3881,
      "coefficient": 3882,
      "genic": 3883,
      "gold": 3884,
      "ats": 3885,
      "roles": 3886,
      "salt": 3887,
      "issues": 3888,
      "tools": 3889,
      "61": 3890,
      "asp": 3891,
      "element": 3892,
      "contain": 3893,
      "database": 3894,
      "apoptosis": 3895,
      "heart": 3896,
      "fru": 3897,
      "sely": 3898,
      "manufact": 3899,
      "fresh": 3900,
      "heren": 3901,
      "solub": 3902,
      "metabolic": 3903,
      "third": 3904,
      "often": 3905,
      "ulty": 3906,
      "controll": 3907,
      "commons": 3908,
      "reactions": 3909,
      "biomarkers": 3910,
      "aceutical": 3911,
      "hence": 3912,
      "lum": 3913,
      "ads": 3914,
      "91": 3915,
      "kh": 3916,
      "ord": 3917,
      "compati": 3918,
      "thermo": 3919,
      "randomly": 3920,
      "dt": 3921,
      "intention": 3922,
      "hours": 3923,
      "robust": 3924,
      "encap": 3925,
      "formed": 3926,
      "valent": 3927,
      "lipo": 3928,
      "fluor": 3929,
      "qol": 3930,
      "young": 3931,
      "season": 3932,
      "acet": 3933,
      "facial": 3934,
      "cultural": 3935,
      "knee": 3936,
      "tom": 3937,
      "uded": 3938,
      "herein": 3939,
      "demographic": 3940,
      "suggests": 3941,
      "81": 3942,
      "assign": 3943,
      "conn": 3944,
      "pool": 3945,
      "innovation": 3946,
      "gest": 3947,
      "anx": 3948,
      "eratures": 3949,
      "cyan": 3950,
      "preparation": 3951,
      "hex": 3952,
      "extern": 3953,
      "accurate": 3954,
      "alkal": 3955,
      "throm": 3956,
      "scopic": 3957,
      "progno": 3958,
      "recommended": 3959,
      "damage": 3960,
      "coating": 3961,
      "invest": 3962,
      "detail": 3963,
      "flood": 3964,
      "constant": 3965,
      "idity": 3966,
      "modification": 3967,
      "enhancement": 3968,
      "attribution": 3969,
      "ram": 3970,
      "fract": 3971,
      "glycerol": 3972,
      "ming": 3973,
      "forced": 3974,
      "pyro": 3975,
      "axis": 3976,
      "validated": 3977,
      "iop": 3978,
      "ues": 3979,
      "urine": 3980,
      "ammon": 3981,
      "classified": 3982,
      "cardiac": 3983,
      "bacillus": 3984,
      "necessary": 3985,
      "bir": 3986,
      "rare": 3987,
      "china": 3988,
      "pore": 3989,
      "unique": 3990,
      "elements": 3991,
      "enge": 3992,
      "sions": 3993,
      "challenge": 3994,
      "ficial": 3995,
      "rin": 3996,
      "ecting": 3997,
      "every": 3998,
      "reports": 3999,
      "project": 4000,
      "ades": 4001,
      "communication": 4002,
      "circul": 4003,
      "mill": 4004,
      "rho": 4005,
      "asse": 4006,
      "expressed": 4007,
      "qualit": 4008,
      "ibe": 4009,
      "ners": 4010,
      "ono": 4011,
      "mild": 4012,
      "radio": 4013,
      "explored": 4014,
      "ionic": 4015,
      "orient": 4016,
      "delay": 4017,
      "stock": 4018,
      "display": 4019,
      "mediate": 4020,
      "spati": 4021,
      "behaviour": 4022,
      "verlag": 4023,
      "bond": 4024,
      "omp": 4025,
      "mode": 4026,
      "added": 4027,
      "curve": 4028,
      "pediatric": 4029,
      "skill": 4030,
      "tropical": 4031,
      "constructed": 4032,
      "2o3": 4033,
      "sf": 4034,
      "reproduc": 4035,
      "cyclo": 4036,
      "interventions": 4037,
      "89": 4038,
      "pack": 4039,
      "acl": 4040,
      "microbio": 4041,
      "rats": 4042,
      "paren": 4043,
      "oti": 4044,
      "significance": 4045,
      "metast": 4046,
      "scenari": 4047,
      "aor": 4048,
      "jets": 4049,
      "inate": 4050,
      "ata": 4051,
      "aspec": 4052,
      "mobil": 4053,
      "effectively": 4054,
      "numerical": 4055,
      "fungal": 4056,
      "spi": 4057,
      "contents": 4058,
      "rain": 4059,
      "beam": 4060,
      "hepat": 4061,
      "describe": 4062,
      "proportion": 4063,
      "veh": 4064,
      "memory": 4065,
      "much": 4066,
      "silica": 4067,
      "biodiesel": 4068,
      "hood": 4069,
      "substit": 4070,
      "river": 4071,
      "proliferation": 4072,
      "coding": 4073,
      "respond": 4074,
      "inhibitor": 4075,
      "2d": 4076,
      "inst": 4077,
      "insul": 4078,
      "conser": 4079,
      "opport": 4080,
      "protection": 4081,
      "optimized": 4082,
      "larger": 4083,
      "task": 4084,
      "pus": 4085,
      "orth": 4086,
      "urity": 4087,
      "antibacterial": 4088,
      "computational": 4089,
      "lateral": 4090,
      "nar": 4091,
      "pg": 4092,
      "wr": 4093,
      "mutation": 4094,
      "ultras": 4095,
      "fabricated": 4096,
      "dual": 4097,
      "sv": 4098,
      "cep": 4099,
      "motor": 4100,
      "udes": 4101,
      "optical": 4102,
      "ify": 4103,
      "black": 4104,
      "tissues": 4105,
      "ancial": 4106,
      "eco": 4107,
      "illu": 4108,
      "financial": 4109,
      "figure": 4110,
      "anxiety": 4111,
      "kv": 4112,
      "inos": 4113,
      "cycles": 4114,
      "external": 4115,
      "mobile": 4116,
      "homo": 4117,
      "embed": 4118,
      "ibr": 4119,
      "temperatures": 4120,
      "competi": 4121,
      "stages": 4122,
      "chondr": 4123,
      "diameter": 4124,
      "cumin": 4125,
      "lhc": 4126,
      "tc": 4127,
      "antic": 4128,
      "tomo": 4129,
      "poss": 4130,
      "underlying": 4131,
      "assisted": 4132,
      "kines": 4133,
      "coated": 4134,
      "tract": 4135,
      "phal": 4136,
      "animal": 4137,
      "lc": 4138,
      "ral": 4139,
      "sand": 4140,
      "zes": 4141,
      "eds": 4142,
      "trig": 4143,
      "sampling": 4144,
      "availability": 4145,
      "abilities": 4146,
      "deposition": 4147,
      "mineral": 4148,
      "solar": 4149,
      "integration": 4150,
      "vehic": 4151,
      "sid": 4152,
      "safe": 4153,
      "called": 4154,
      "climate": 4155,
      "theoretical": 4156,
      "validation": 4157,
      "ked": 4158,
      "icit": 4159,
      "odds": 4160,
      "impair": 4161,
      "distinct": 4162,
      "alloy": 4163,
      "compan": 4164,
      "mak": 4165,
      "predicting": 4166,
      "lands": 4167,
      "needs": 4168,
      "validity": 4169,
      "luminosity": 4170,
      "dp": 4171,
      "date": 4172,
      "onset": 4173,
      "elastic": 4174,
      "perit": 4175,
      "parts": 4176,
      "aspects": 4177,
      "fast": 4178,
      "hf": 4179,
      "trading": 4180,
      "vivo": 4181,
      "healing": 4182,
      "2015": 4183,
      "curcumin": 4184,
      "copper": 4185,
      "planning": 4186,
      "taken": 4187,
      "special": 4188,
      "postoperative": 4189,
      "formula": 4190,
      "substanti": 4191,
      "january": 4192,
      "resolution": 4193,
      "assays": 4194,
      "profes": 4195,
      "next": 4196,
      "nuclear": 4197,
      "corona": 4198,
      "qualitative": 4199,
      "izoph": 4200,
      "lowest": 4201,
      "emerging": 4202,
      "recruited": 4203,
      "allel": 4204,
      "diffusion": 4205,
      "does": 4206,
      "placebo": 4207,
      "eye": 4208,
      "amy": 4209,
      "imen": 4210,
      "geneous": 4211,
      "possess": 4212,
      "rid": 4213,
      "era": 4214,
      "trum": 4215,
      "spor": 4216,
      "make": 4217,
      "solvent": 4218,
      "vaccines": 4219,
      "cytotoxicity": 4220,
      "phosphate": 4221,
      "concern": 4222,
      "cher": 4223,
      "highl": 4224,
      "grav": 4225,
      "crack": 4226,
      "epide": 4227,
      "macroph": 4228,
      "mang": 4229,
      "rig": 4230,
      "cultiv": 4231,
      "optimum": 4232,
      "broad": 4233,
      "technologies": 4234,
      "archit": 4235,
      "successful": 4236,
      "doped": 4237,
      "gain": 4238,
      "indones": 4239,
      "biofil": 4240,
      "empir": 4241,
      "ultural": 4242,
      "inhibitors": 4243,
      "affecting": 4244,
      "restricted": 4245,
      "deng": 4246,
      "label": 4247,
      "implemented": 4248,
      "exercise": 4249,
      "text": 4250,
      "cement": 4251,
      "max": 4252,
      "considering": 4253,
      "cerv": 4254,
      "molecules": 4255,
      "glass": 4256,
      "exposed": 4257,
      "beneficial": 4258,
      "euro": 4259,
      "spp": 4260,
      "monary": 4261,
      "groundwater": 4262,
      "strongly": 4263,
      "profession": 4264,
      "examp": 4265,
      "carbo": 4266,
      "fri": 4267,
      "traff": 4268,
      "faces": 4269,
      "estimate": 4270,
      "500": 4271,
      "reactive": 4272,
      "roy": 4273,
      "dialysis": 4274,
      "ckd": 4275,
      "dimensions": 4276,
      "hts": 4277,
      "jun": 4278,
      "ana": 4279,
      "uting": 4280,
      "variable": 4281,
      "otherap": 4282,
      "candidate": 4283,
      "accumulation": 4284,
      "examination": 4285,
      "directly": 4286,
      "diffr": 4287,
      "schizoph": 4288,
      "glyco": 4289,
      "pharmaceutical": 4290,
      "scaff": 4291,
      "dengue": 4292,
      "schizophren": 4293,
      "hg": 4294,
      "potent": 4295,
      "forms": 4296,
      "crim": 4297,
      "providing": 4298,
      "flux": 4299,
      "silver": 4300,
      "vitamin": 4301,
      "traffic": 4302,
      "staining": 4303,
      "induction": 4304,
      "truc": 4305,
      "lution": 4306,
      "channel": 4307,
      "undergo": 4308,
      "methylation": 4309,
      "focused": 4310,
      "friend": 4311,
      "pas": 4312,
      "atal": 4313,
      "accel": 4314,
      "costs": 4315,
      "gc": 4316,
      "td": 4317,
      "tem": 4318,
      "chromatography": 4319,
      "cervical": 4320,
      "input": 4321,
      "ic50": 4322,
      "spectrum": 4323,
      "400": 4324,
      "sile": 4325,
      "plus": 4326,
      "get": 4327,
      "applying": 4328,
      "requires": 4329,
      "muco": 4330,
      "south": 4331,
      "peptide": 4332,
      "speed": 4333,
      "architect": 4334,
      "own": 4335,
      "gran": 4336,
      "inclusion": 4337,
      "transformation": 4338,
      "sensing": 4339,
      "anesthe": 4340,
      "insights": 4341,
      "schizophrenia": 4342,
      "round": 4343,
      "mitochondr": 4344,
      "utive": 4345,
      "icin": 4346,
      "viet": 4347,
      "pressive": 4348,
      "contribute": 4349,
      "personal": 4350,
      "cents": 4351,
      "vac": 4352,
      "precip": 4353,
      "firms": 4354,
      "capture": 4355,
      "aware": 4356,
      "battery": 4357,
      "docu": 4358,
      "interviews": 4359,
      "surfactant": 4360,
      "tious": 4361,
      "molar": 4362,
      "characteristic": 4363,
      "apping": 4364,
      "burden": 4365,
      "joint": 4366,
      "never": 4367,
      "deficiency": 4368,
      "adolescents": 4369,
      "tail": 4370,
      "ulture": 4371,
      "logy": 4372,
      "board": 4373,
      "property": 4374,
      "simulations": 4375,
      "extended": 4376,
      "course": 4377,
      "informa": 4378,
      "fic": 4379,
      "sr": 4380,
      "renew": 4381,
      "dioxide": 4382,
      "meter": 4383,
      "extre": 4384,
      "formal": 4385,
      "positively": 4386,
      "pigs": 4387,
      "auc": 4388,
      "city": 4389,
      "dehy": 4390,
      "detector": 4391,
      "palm": 4392,
      "multivariate": 4393,
      "asy": 4394,
      "cere": 4395,
      "micr": 4396,
      "malign": 4397,
      "predom": 4398,
      "administered": 4399,
      "arom": 4400,
      "fec": 4401,
      "limitations": 4402,
      "migration": 4403,
      "gamma": 4404,
      "ges": 4405,
      "lr": 4406,
      "ros": 4407,
      "emergen": 4408,
      "hbv": 4409,
      "gin": 4410,
      "ryl": 4411,
      "encing": 4412,
      "hout": 4413,
      "white": 4414,
      "contained": 4415,
      "icians": 4416,
      "hcv": 4417,
      "coupled": 4418,
      "japan": 4419,
      "vd": 4420,
      "xyl": 4421,
      "orption": 4422,
      "usal": 4423,
      "computed": 4424,
      "humans": 4425,
      "coronavirus": 4426,
      "vietnam": 4427,
      "methane": 4428,
      "producing": 4429,
      "reinforced": 4430,
      "fluorescence": 4431,
      "ju": 4432,
      "anter": 4433,
      "encies": 4434,
      "allo": 4435,
      "persis": 4436,
      "adequ": 4437,
      "explor": 4438,
      "infrared": 4439,
      "mc": 4440,
      "ond": 4441,
      "ardi": 4442,
      "raw": 4443,
      "photocatalytic": 4444,
      "scienti": 4445,
      "recognition": 4446,
      "artificial": 4447,
      "otherapy": 4448,
      "bud": 4449,
      "izations": 4450,
      "tensile": 4451,
      "enhancing": 4452,
      "members": 4453,
      "soft": 4454,
      "phylogenetic": 4455,
      "assigned": 4456,
      "spatial": 4457,
      "assem": 4458,
      "constit": 4459,
      "longer": 4460,
      "invasive": 4461,
      "copic": 4462,
      "enty": 4463,
      "sib": 4464,
      "teen": 4465,
      "phases": 4466,
      "forest": 4467,
      "obesity": 4468,
      "solubility": 4469,
      "pass": 4470,
      "var": 4471,
      "zone": 4472,
      "roid": 4473,
      "exist": 4474,
      "plays": 4475,
      "targets": 4476,
      "doses": 4477,
      "agricultural": 4478,
      "junc": 4479,
      "socio": 4480,
      "tree": 4481,
      "decomp": 4482,
      "mixture": 4483,
      "publications": 4484,
      "leads": 4485,
      "fibrosis": 4486,
      "static": 4487,
      "igg": 4488,
      "spin": 4489,
      "risks": 4490,
      "config": 4491,
      "sustainability": 4492,
      "females": 4493,
      "royal": 4494,
      "alpha": 4495,
      "mps": 4496,
      "lith": 4497,
      "herence": 4498,
      "slight": 4499,
      "thre": 4500,
      "finite": 4501,
      "ocytes": 4502,
      "pooled": 4503,
      "quin": 4504,
      "estimation": 4505,
      "kinetics": 4506,
      "fixed": 4507,
      "alumin": 4508,
      "chap": 4509,
      "viability": 4510,
      "foam": 4511,
      "mitig": 4512,
      "powder": 4513,
      "resonance": 4514,
      "dataset": 4515,
      "electrolyte": 4516,
      "resin": 4517,
      "uptake": 4518,
      "twenty": 4519,
      "interestingly": 4520,
      "depos": 4521,
      "specif": 4522,
      "malay": 4523,
      "manag": 4524,
      "hydropho": 4525,
      "sediment": 4526,
      "sufficient": 4527,
      "must": 4528,
      "movement": 4529,
      "preser": 4530,
      "variance": 4531,
      "conductivity": 4532,
      "recommendations": 4533,
      "artery": 4534,
      "precis": 4535,
      "incid": 4536,
      "jected": 4537,
      "arc": 4538,
      "umab": 4539,
      "charged": 4540,
      "viruses": 4541,
      "ranging": 4542,
      "pacific": 4543,
      "yet": 4544,
      "ising": 4545,
      "immobil": 4546,
      "synerg": 4547,
      "spectrometry": 4548,
      "subsequently": 4549,
      "chro": 4550,
      "transverse": 4551,
      "strepto": 4552,
      "supplementation": 4553,
      "specifically": 4554,
      "aden": 4555,
      "ucid": 4556,
      "discharge": 4557,
      "discrim": 4558,
      "enza": 4559,
      "ember": 4560,
      "melan": 4561,
      "propyl": 4562,
      "fruit": 4563,
      "07": 4564,
      "xrd": 4565,
      "malaria": 4566,
      "draw": 4567,
      "cycling": 4568,
      "issue": 4569,
      "birth": 4570,
      "elling": 4571,
      "phyto": 4572,
      "records": 4573,
      "chemotherapy": 4574,
      "transplantation": 4575,
      "momentum": 4576,
      "favor": 4577,
      "µg": 4578,
      "elis": 4579,
      "cos": 4580,
      "wet": 4581,
      "units": 4582,
      "priv": 4583,
      "polymers": 4584,
      "proposes": 4585,
      "milk": 4586,
      "pulmonary": 4587,
      "insulin": 4588,
      "starch": 4589,
      "lets": 4590,
      "leaves": 4591,
      "chines": 4592,
      "structured": 4593,
      "completed": 4594,
      "regional": 4595,
      "blu": 4596,
      "cit": 4597,
      "quant": 4598,
      "complic": 4599,
      "below": 4600,
      "qr": 4601,
      "reproduction": 4602,
      "crude": 4603,
      "males": 4604,
      "faculty": 4605,
      "anese": 4606,
      "varying": 4607,
      "chinese": 4608,
      "rosis": 4609,
      "diverse": 4610,
      "semi": 4611,
      "spir": 4612,
      "avoid": 4613,
      "loaded": 4614,
      "procedures": 4615,
      "phenolic": 4616,
      "vas": 4617,
      "december": 4618,
      "generate": 4619,
      "cutaneous": 4620,
      "collaboration": 4621,
      "zno": 4622,
      "ico": 4623,
      "motiv": 4624,
      "hemo": 4625,
      "marke": 4626,
      "ferred": 4627,
      "sensors": 4628,
      "sepsis": 4629,
      "atmo": 4630,
      "idae": 4631,
      "2014": 4632,
      "numbers": 4633,
      "influenza": 4634,
      "cytokines": 4635,
      "tolerance": 4636,
      "antibiotic": 4637,
      "respondents": 4638,
      "120": 4639,
      "300": 4640,
      "actin": 4641,
      "masses": 4642,
      "layers": 4643,
      "square": 4644,
      "driven": 4645,
      "pyrolysis": 4646,
      "empirical": 4647,
      "hund": 4648,
      "oa": 4649,
      "wind": 4650,
      "porous": 4651,
      "myco": 4652,
      "challenging": 4653,
      "deviation": 4654,
      "hundred": 4655,
      "06": 4656,
      "promoting": 4657,
      "kinetic": 4658,
      "aks": 4659,
      "thres": 4660,
      "para": 4661,
      "canine": 4662,
      "serious": 4663,
      "targeted": 4664,
      "mitted": 4665,
      "hu": 4666,
      "slo": 4667,
      "tan": 4668,
      "height": 4669,
      "ughout": 4670,
      "throughout": 4671,
      "basic": 4672,
      "majority": 4673,
      "anterior": 4674,
      "phone": 4675,
      "bios": 4676,
      "polymorph": 4677,
      "regulatory": 4678,
      "tuber": 4679,
      "diffraction": 4680,
      "fed": 4681,
      "tac": 4682,
      "usage": 4683,
      "chec": 4684,
      "indo": 4685,
      "phenyl": 4686,
      "epithelial": 4687,
      "derivatives": 4688,
      "hap": 4689,
      "pin": 4690,
      "another": 4691,
      "icals": 4692,
      "bleeding": 4693,
      "basis": 4694,
      "customer": 4695,
      "pure": 4696,
      "sizes": 4697,
      "ighted": 4698,
      "vibr": 4699,
      "forec": 4700,
      "close": 4701,
      "hospitals": 4702,
      "questionnaires": 4703,
      "animals": 4704,
      "hormon": 4705,
      "predominant": 4706,
      "cation": 4707,
      "np": 4708,
      "though": 4709,
      "isation": 4710,
      "leaf": 4711,
      "versi": 4712,
      "amide": 4713,
      "means": 4714,
      "emphas": 4715,
      "laser": 4716,
      "sorbent": 4717,
      "europe": 4718,
      "renewable": 4719,
      "sugar": 4720,
      "feature": 4721,
      "create": 4722,
      "rectal": 4723,
      "steel": 4724,
      "saliv": 4725,
      "column": 4726,
      "bit": 4727,
      "rating": 4728,
      "austr": 4729,
      "simulated": 4730,
      "algorithms": 4731,
      "psychological": 4732,
      "academic": 4733,
      "roc": 4734,
      "lepto": 4735,
      "wil": 4736,
      "seen": 4737,
      "computer": 4738,
      "camp": 4739,
      "sector": 4740,
      "cover": 4741,
      "variety": 4742,
      "collection": 4743,
      "uniform": 4744,
      "comparative": 4745,
      "complexes": 4746,
      "ovascular": 4747,
      "effor": 4748,
      "atically": 4749,
      "thor": 4750,
      "consens": 4751,
      "tering": 4752,
      "wered": 4753,
      "tyl": 4754,
      "equi": 4755,
      "sections": 4756,
      "08": 4757,
      "reading": 4758,
      "neph": 4759,
      "expand": 4760,
      "h3": 4761,
      "ound": 4762,
      "sively": 4763,
      "fullt": 4764,
      "indirect": 4765,
      "hydrogenation": 4766,
      "dehyde": 4767,
      "quantum": 4768,
      "fulltext": 4769,
      "etic": 4770,
      "hab": 4771,
      "vascular": 4772,
      "elucid": 4773,
      "corpor": 4774,
      "regular": 4775,
      "egfr": 4776,
      "mw": 4777,
      "sphere": 4778,
      "cipi": 4779,
      "phenomen": 4780,
      "nc": 4781,
      "nic": 4782,
      "plo": 4783,
      "µm": 4784,
      "attemp": 4785,
      "metals": 4786,
      "teachers": 4787,
      "nursing": 4788,
      "compressive": 4789,
      "veloc": 4790,
      "endoscopic": 4791,
      "gau": 4792,
      "onia": 4793,
      "oflu": 4794,
      "offe": 4795,
      "unknown": 4796,
      "tilap": 4797,
      "printing": 4798,
      "introduced": 4799,
      "elevated": 4800,
      "scar": 4801,
      "periph": 4802,
      "newly": 4803,
      "minimum": 4804,
      "diabetic": 4805,
      "attitude": 4806,
      "consensus": 4807,
      "velocity": 4808,
      "fly": 4809,
      "pressing": 4810,
      "illary": 4811,
      "capability": 4812,
      "tropic": 4813,
      "lamp": 4814,
      "pf": 4815,
      "prolong": 4816,
      "targeting": 4817,
      "pulp": 4818,
      "voltage": 4819,
      "serve": 4820,
      "variant": 4821,
      "metall": 4822,
      "growing": 4823,
      "influenced": 4824,
      "dominant": 4825,
      "probability": 4826,
      "lactic": 4827,
      "aa": 4828,
      "lign": 4829,
      "recurrent": 4830,
      "cha": 4831,
      "seed": 4832,
      "sets": 4833,
      "locations": 4834,
      "n2": 4835,
      "inser": 4836,
      "ises": 4837,
      "coast": 4838,
      "web": 4839,
      "uri": 4840,
      "manufacturing": 4841,
      "repl": 4842,
      "code": 4843,
      "exchange": 4844,
      "mody": 4845,
      "poli": 4846,
      "manif": 4847,
      "varied": 4848,
      "ocular": 4849,
      "communities": 4850,
      "pairs": 4851,
      "cluster": 4852,
      "pregnancy": 4853,
      "items": 4854,
      "avi": 4855,
      "motion": 4856,
      "price": 4857,
      "correlations": 4858,
      "zeol": 4859,
      "remained": 4860,
      "address": 4861,
      "databases": 4862,
      "cred": 4863,
      "ambi": 4864,
      "quar": 4865,
      "tenance": 4866,
      "earth": 4867,
      "maintenance": 4868,
      "exhibit": 4869,
      "feeding": 4870,
      "blue": 4871,
      "eme": 4872,
      "bioactive": 4873,
      "security": 4874,
      "hypertension": 4875,
      "mitochondrial": 4876,
      "kr": 4877,
      "ancer": 4878,
      "enrich": 4879,
      "elim": 4880,
      "neum": 4881,
      "foot": 4882,
      "affects": 4883,
      "ogenesis": 4884,
      "ranged": 4885,
      "acceptable": 4886,
      "dysfunction": 4887,
      "difficult": 4888,
      "tilapia": 4889,
      "dark": 4890,
      "va": 4891,
      "until": 4892,
      "construct": 4893,
      "perme": 4894,
      "formulation": 4895,
      "izes": 4896,
      "observation": 4897,
      "egg": 4898,
      "replacement": 4899,
      "consequ": 4900,
      "track": 4901,
      "irradiation": 4902,
      "pet": 4903,
      "fields": 4904,
      "secre": 4905,
      "rsv": 4906,
      "coupling": 4907,
      "done": 4908,
      "ril": 4909,
      "teries": 4910,
      "plate": 4911,
      "equations": 4912,
      "cyclic": 4913,
      "analog": 4914,
      "cup": 4915,
      "iqr": 4916,
      "ots": 4917,
      "atr": 4918,
      "expan": 4919,
      "frequently": 4920,
      "policies": 4921,
      "domains": 4922,
      "nasal": 4923,
      "trust": 4924,
      "what": 4925,
      "corro": 4926,
      "organisms": 4927,
      "blind": 4928,
      "inhibited": 4929,
      "myan": 4930,
      "sexual": 4931,
      "peripheral": 4932,
      "arily": 4933,
      "trip": 4934,
      "sero": 4935,
      "posterior": 4936,
      "polymerase": 4937,
      "placed": 4938,
      "09": 4939,
      "spon": 4940,
      "corti": 4941,
      "graft": 4942,
      "hcc": 4943,
      "wise": 4944,
      "tooth": 4945,
      "cox": 4946,
      "hot": 4947,
      "crib": 4948,
      "researchers": 4949,
      "kinase": 4950,
      "predictors": 4951,
      "myanmar": 4952,
      "almost": 4953,
      "beta": 4954,
      "membranes": 4955,
      "illustr": 4956,
      "rication": 4957,
      "theless": 4958,
      "venous": 4959,
      "frag": 4960,
      "matched": 4961,
      "infectious": 4962,
      "settings": 4963,
      "undergoing": 4964,
      "gb": 4965,
      "topic": 4966,
      "wood": 4967,
      "involving": 4968,
      "cardiovascular": 4969,
      "metabolism": 4970,
      "candida": 4971,
      "decaying": 4972,
      "attach": 4973,
      "reproductive": 4974,
      "experienced": 4975,
      "changed": 4976,
      "smaller": 4977,
      "taxon": 4978,
      "tomography": 4979,
      "rrna": 4980,
      "acin": 4981,
      "leuk": 4982,
      "ichia": 4983,
      "shift": 4984,
      "yields": 4985,
      "subsequent": 4986,
      "acryl": 4987,
      "olar": 4988,
      "perspective": 4989,
      "utro": 4990,
      "responsible": 4991,
      "pathological": 4992,
      "steam": 4993,
      "explained": 4994,
      "dend": 4995,
      "hing": 4996,
      "rever": 4997,
      "rout": 4998,
      "ache": 4999,
      "genomic": 5000,
      "causing": 5001,
      "stiff": 5002,
      "pathogenic": 5003,
      "summar": 5004,
      "alb": 5005,
      "output": 5006,
      "soluble": 5007,
      "illance": 5008,
      "travel": 5009,
      "northern": 5010,
      "initiation": 5011,
      "emulsion": 5012,
      "acceler": 5013,
      "cine": 5014,
      "reten": 5015,
      "acces": 5016,
      "pros": 5017,
      "spac": 5018,
      "pollution": 5019,
      "ught": 5020,
      "scope": 5021,
      "mostly": 5022,
      "expect": 5023,
      "surveillance": 5024,
      "contamination": 5025,
      "trend": 5026,
      "gastrointestinal": 5027,
      "susceptibility": 5028,
      "awareness": 5029,
      "600": 5030,
      "rr": 5031,
      "recombin": 5032,
      "leu": 5033,
      "aphy": 5034,
      "omer": 5035,
      "omes": 5036,
      "cern": 5037,
      "descriptive": 5038,
      "tubercul": 5039,
      "nel": 5040,
      "road": 5041,
      "count": 5042,
      "univers": 5043,
      "printed": 5044,
      "electricity": 5045,
      "skills": 5046,
      "precision": 5047,
      "typic": 5048,
      "mixing": 5049,
      "calculations": 5050,
      "steps": 5051,
      "constraints": 5052,
      "otide": 5053,
      "adequate": 5054,
      "fif": 5055,
      "oso": 5056,
      "ford": 5057,
      "differenti": 5058,
      "okine": 5059,
      "titan": 5060,
      "teaching": 5061,
      "dc": 5062,
      "pil": 5063,
      "offer": 5064,
      "marine": 5065,
      "feasibility": 5066,
      "epidemi": 5067,
      "favorable": 5068,
      "bes": 5069,
      "coord": 5070,
      "hepa": 5071,
      "induce": 5072,
      "akt": 5073,
      "16s": 5074,
      "volati": 5075,
      "fibers": 5076,
      "calculation": 5077,
      "belie": 5078,
      "incorporated": 5079,
      "opathy": 5080,
      "displayed": 5081,
      "slightly": 5082,
      "bol": 5083,
      "big": 5084,
      "ham": 5085,
      "zr": 5086,
      "ectomy": 5087,
      "adherence": 5088,
      "reveals": 5089,
      "volun": 5090,
      "supersym": 5091,
      "enzymes": 5092,
      "ocyte": 5093,
      "anticancer": 5094,
      "indonesia": 5095,
      "fel": 5096,
      "tex": 5097,
      "ifn": 5098,
      "phyl": 5099,
      "distric": 5100,
      "little": 5101,
      "implement": 5102,
      "chloride": 5103,
      "precipitation": 5104,
      "aid": 5105,
      "p2": 5106,
      "wan": 5107,
      "odon": 5108,
      "demonstrates": 5109,
      "clean": 5110,
      "confirm": 5111,
      "osteo": 5112,
      "genotype": 5113,
      "austral": 5114,
      "mv": 5115,
      "agon": 5116,
      "except": 5117,
      "oneal": 5118,
      "equip": 5119,
      "pharmacokine": 5120,
      "innovative": 5121,
      "friendly": 5122,
      "b1": 5123,
      "o4": 5124,
      "elet": 5125,
      "clay": 5126,
      "coma": 5127,
      "aceae": 5128,
      "pathogens": 5129,
      "tourism": 5130,
      "permits": 5131,
      "scientific": 5132,
      "pay": 5133,
      "technical": 5134,
      "polymerization": 5135,
      "nerve": 5136,
      "psycho": 5137,
      "crystal": 5138,
      "uncertainty": 5139,
      "gravity": 5140,
      "correct": 5141,
      "ubation": 5142,
      "cd4": 5143,
      "generally": 5144,
      "metabolites": 5145,
      "residues": 5146,
      "aerob": 5147,
      "transportation": 5148,
      "productivity": 5149,
      "ending": 5150,
      "performances": 5151,
      "tility": 5152,
      "scheme": 5153,
      "advantages": 5154,
      "facilitate": 5155,
      "ressing": 5156,
      "taking": 5157,
      "suppression": 5158,
      "clinic": 5159,
      "pyr": 5160,
      "reliable": 5161,
      "biomarker": 5162,
      "contaminated": 5163,
      "barrier": 5164,
      "acetate": 5165,
      "gent": 5166,
      "r2": 5167,
      "ulf": 5168,
      "cytes": 5169,
      "dependence": 5170,
      "nanocomposites": 5171,
      "belong": 5172,
      "fabrication": 5173,
      "width": 5174,
      "attitudes": 5175,
      "experts": 5176,
      "abundance": 5177,
      "assemb": 5178,
      "later": 5179,
      "nf": 5180,
      "regeneration": 5181,
      "onas": 5182,
      "chari": 5183,
      "apor": 5184,
      "summ": 5185,
      "amic": 5186,
      "neutro": 5187,
      "disrup": 5188,
      "capital": 5189,
      "temporal": 5190,
      "chemicals": 5191,
      "visco": 5192,
      "stead": 5193,
      "ergic": 5194,
      "aerobic": 5195,
      "denti": 5196,
      "kore": 5197,
      "repair": 5198,
      "rol": 5199,
      "sio2": 5200,
      "ches": 5201,
      "termin": 5202,
      "tency": 5203,
      "surfaces": 5204,
      "multic": 5205,
      "mdd": 5206,
      "bottom": 5207,
      "embedded": 5208,
      "chapter": 5209,
      "lignin": 5210,
      "epo": 5211,
      "gue": 5212,
      "nb": 5213,
      "none": 5214,
      "t1": 5215,
      "war": 5216,
      "usually": 5217,
      "probe": 5218,
      "omal": 5219,
      "precur": 5220,
      "analysed": 5221,
      "ologists": 5222,
      "colori": 5223,
      "indicates": 5224,
      "fourier": 5225,
      "1000": 5226,
      "marker": 5227,
      "modulus": 5228,
      "consequently": 5229,
      "inyl": 5230,
      "orous": 5231,
      "asons": 5232,
      "urinary": 5233,
      "manner": 5234,
      "germany": 5235,
      "promoted": 5236,
      "recurrence": 5237,
      "loop": 5238,
      "reservo": 5239,
      "identifying": 5240,
      "obacteria": 5241,
      "lepton": 5242,
      "reservoir": 5243,
      "hed": 5244,
      "job": 5245,
      "ink": 5246,
      "entre": 5247,
      "tetra": 5248,
      "ectors": 5249,
      "spectively": 5250,
      "applic": 5251,
      "perception": 5252,
      "assist": 5253,
      "physiological": 5254,
      "recombinant": 5255,
      "hepatic": 5256,
      "cac": 5257,
      "rc": 5258,
      "elong": 5259,
      "appe": 5260,
      "iral": 5261,
      "programs": 5262,
      "susp": 5263,
      "recognized": 5264,
      "peptides": 5265,
      "charide": 5266,
      "ru": 5267,
      "sty": 5268,
      "elf": 5269,
      "parallel": 5270,
      "valuable": 5271,
      "behavioral": 5272,
      "determining": 5273,
      "algae": 5274,
      "consisted": 5275,
      "absence": 5276,
      "thrombo": 5277,
      "ultrasound": 5278,
      "manifest": 5279,
      "pit": 5280,
      "ories": 5281,
      "resis": 5282,
      "angio": 5283,
      "brand": 5284,
      "nanof": 5285,
      "intell": 5286,
      "consists": 5287,
      "leaders": 5288,
      "intracellular": 5289,
      "biofilm": 5290,
      "modynamic": 5291,
      "cers": 5292,
      "table": 5293,
      "depressive": 5294,
      "phic": 5295,
      "carb": 5296,
      "ppm": 5297,
      "yielded": 5298,
      "guided": 5299,
      "transcription": 5300,
      "advantage": 5301,
      "biopsy": 5302,
      "controlling": 5303,
      "ees": 5304,
      "his": 5305,
      "pestic": 5306,
      "tir": 5307,
      "orter": 5308,
      "unrestricted": 5309,
      "dimethyl": 5310,
      "occurrence": 5311,
      "occup": 5312,
      "goal": 5313,
      "dextr": 5314,
      "nutrition": 5315,
      "ligand": 5316,
      "150": 5317,
      "pene": 5318,
      "pneum": 5319,
      "tures": 5320,
      "ulated": 5321,
      "cannot": 5322,
      "infants": 5323,
      "illness": 5324,
      "generative": 5325,
      "extent": 5326,
      "gradu": 5327,
      "involvement": 5328,
      "southern": 5329,
      "adoption": 5330,
      "antibiotics": 5331,
      "thi": 5332,
      "antiv": 5333,
      "stake": 5334,
      "company": 5335,
      "cann": 5336,
      "virt": 5337,
      "ished": 5338,
      "consisting": 5339,
      "similarity": 5340,
      "neck": 5341,
      "detecting": 5342,
      "allows": 5343,
      "fibrobl": 5344,
      "teeth": 5345,
      "phan": 5346,
      "2013": 5347,
      "word": 5348,
      "subjected": 5349,
      "educational": 5350,
      "boundary": 5351,
      "prognostic": 5352,
      "metallic": 5353,
      "lap": 5354,
      "lup": 5355,
      "remark": 5356,
      "ider": 5357,
      "amel": 5358,
      "spread": 5359,
      "treating": 5360,
      "ship": 5361,
      "visible": 5362,
      "fying": 5363,
      "domestic": 5364,
      "offers": 5365,
      "explain": 5366,
      "architecture": 5367,
      "stakehol": 5368,
      "cris": 5369,
      "interface": 5370,
      "receive": 5371,
      "spher": 5372,
      "statistics": 5373,
      "philic": 5374,
      "eyes": 5375,
      "tnf": 5376,
      "cumul": 5377,
      "bis": 5378,
      "bmi": 5379,
      "pn": 5380,
      "adding": 5381,
      "firm": 5382,
      "menop": 5383,
      "periods": 5384,
      "hydrogels": 5385,
      "competitive": 5386,
      "probio": 5387,
      "asean": 5388,
      "binary": 5389,
      "economy": 5390,
      "bacterium": 5391,
      "observations": 5392,
      "pregnant": 5393,
      "circulating": 5394,
      "retention": 5395,
      "gon": 5396,
      "sent": 5397,
      "tingu": 5398,
      "rather": 5399,
      "hydrate": 5400,
      "recipi": 5401,
      "lys": 5402,
      "exec": 5403,
      "created": 5404,
      "supporting": 5405,
      "commit": 5406,
      "zero": 5407,
      "psychi": 5408,
      "amounts": 5409,
      "observational": 5410,
      "hydrophobic": 5411,
      "bb": 5412,
      "bind": 5413,
      "wat": 5414,
      "escher": 5415,
      "counter": 5416,
      "concerns": 5417,
      "cholester": 5418,
      "simultaneously": 5419,
      "investment": 5420,
      "tuberculosis": 5421,
      "fal": 5422,
      "ki": 5423,
      "tp": 5424,
      "atus": 5425,
      "pretreatment": 5426,
      "sibly": 5427,
      "mcr": 5428,
      "rural": 5429,
      "vents": 5430,
      "centers": 5431,
      "standardi": 5432,
      "graphical": 5433,
      "negatively": 5434,
      "contribution": 5435,
      "rapidly": 5436,
      "impairment": 5437,
      "synergistic": 5438,
      "escherichia": 5439,
      "gd": 5440,
      "retr": 5441,
      "ulate": 5442,
      "acetyl": 5443,
      "pathology": 5444,
      "distributions": 5445,
      "threat": 5446,
      "expansion": 5447,
      "memor": 5448,
      "transi": 5449,
      "variations": 5450,
      "engagement": 5451,
      "adopted": 5452,
      "macrophages": 5453,
      "otic": 5454,
      "rb": 5455,
      "reverse": 5456,
      "encour": 5457,
      "book": 5458,
      "brac": 5459,
      "neutr": 5460,
      "nanocomposite": 5461,
      "minimal": 5462,
      "stimulation": 5463,
      "sulfate": 5464,
      "thyroid": 5465,
      "ea": 5466,
      "assu": 5467,
      "echo": 5468,
      "coverage": 5469,
      "tetr": 5470,
      "osa": 5471,
      "showing": 5472,
      "words": 5473,
      "others": 5474,
      "ritis": 5475,
      "nmr": 5476,
      "nurses": 5477,
      "lupus": 5478,
      "dic": 5479,
      "km": 5480,
      "asto": 5481,
      "modes": 5482,
      "lies": 5483,
      "exhibits": 5484,
      "symptom": 5485,
      "idized": 5486,
      "horiz": 5487,
      "colorimetric": 5488,
      "overe": 5489,
      "sar": 5490,
      "idal": 5491,
      "cold": 5492,
      "indicators": 5493,
      "dye": 5494,
      "environments": 5495,
      "farmers": 5496,
      "datasets": 5497,
      "corporate": 5498,
      "stiffness": 5499,
      "b2": 5500,
      "list": 5501,
      "mam": 5502,
      "wc": 5503,
      "arsen": 5504,
      "spectra": 5505,
      "poll": 5506,
      "fermentation": 5507,
      "gave": 5508,
      "organizational": 5509,
      "cribed": 5510,
      "asts": 5511,
      "vertical": 5512,
      "hydrolysis": 5513,
      "nonlinear": 5514,
      "possibly": 5515,
      "glau": 5516,
      "sciences": 5517,
      "hardness": 5518,
      "political": 5519,
      "aun": 5520,
      "aure": 5521,
      "ende": 5522,
      "coag": 5523,
      "distingu": 5524,
      "solute": 5525,
      "evaluating": 5526,
      "ogenicity": 5527,
      "periodicals": 5528,
      "tumors": 5529,
      "guideline": 5530,
      "european": 5531,
      "summary": 5532,
      "born": 5533,
      "mosqu": 5534,
      "viol": 5535,
      "heating": 5536,
      "box": 5537,
      "petro": 5538,
      "lesion": 5539,
      "bral": 5540,
      "unclear": 5541,
      "closed": 5542,
      "physico": 5543,
      "nitr": 5544,
      "zeolite": 5545,
      "mosquito": 5546,
      "aud": 5547,
      "pel": 5548,
      "slow": 5549,
      "stone": 5550,
      "abstr": 5551,
      "odes": 5552,
      "grid": 5553,
      "regimen": 5554,
      "suppressed": 5555,
      "influencing": 5556,
      "cloud": 5557,
      "periodontal": 5558,
      "consumers": 5559,
      "feedback": 5560,
      "nucleotide": 5561,
      "fracture": 5562,
      "threshold": 5563,
      "tile": 5564,
      "basin": 5565,
      "thirty": 5566,
      "universal": 5567,
      "mouse": 5568,
      "sows": 5569,
      "includes": 5570,
      "salinity": 5571,
      "video": 5572,
      "retroviral": 5573,
      "insight": 5574,
      "ky": 5575,
      "ened": 5576,
      "105": 5577,
      "assessing": 5578,
      "caregi": 5579,
      "popular": 5580,
      "discussion": 5581,
      "encapsul": 5582,
      "june": 5583,
      "itary": 5584,
      "intermediate": 5585,
      "ophil": 5586,
      "modern": 5587,
      "piglets": 5588,
      "emissions": 5589,
      "bt": 5590,
      "t2": 5591,
      "rough": 5592,
      "abdom": 5593,
      "grading": 5594,
      "circular": 5595,
      "dispersion": 5596,
      "discovery": 5597,
      "overex": 5598,
      "asi": 5599,
      "trained": 5600,
      "typical": 5601,
      "diges": 5602,
      "choice": 5603,
      "correction": 5604,
      "hv": 5605,
      "depart": 5606,
      "ami": 5607,
      "cav": 5608,
      "lified": 5609,
      "vised": 5610,
      "defect": 5611,
      "defini": 5612,
      "ometry": 5613,
      "depending": 5614,
      "myo": 5615,
      "vaccinated": 5616,
      "jul": 5617,
      "p1": 5618,
      "vil": 5619,
      "bey": 5620,
      "exc": 5621,
      "arent": 5622,
      "signs": 5623,
      "shif": 5624,
      "morb": 5625,
      "sched": 5626,
      "generalized": 5627,
      "focuses": 5628,
      "heterogeneous": 5629,
      "ophysi": 5630,
      "quarks": 5631,
      "ftir": 5632,
      "lv": 5633,
      "pad": 5634,
      "rib": 5635,
      "intensive": 5636,
      "pathogenesis": 5637,
      "junction": 5638,
      "elisa": 5639,
      "cg": 5640,
      "dd": 5641,
      "spo": 5642,
      "al2o3": 5643,
      "attr": 5644,
      "resol": 5645,
      "lowered": 5646,
      "responsive": 5647,
      "annual": 5648,
      "cardio": 5649,
      "famil": 5650,
      "cultured": 5651,
      "vehicle": 5652,
      "malaysia": 5653,
      "equivalent": 5654,
      "enab": 5655,
      "respect": 5656,
      "interact": 5657,
      "factory": 5658,
      "illin": 5659,
      "questions": 5660,
      "equil": 5661,
      "extensive": 5662,
      "excluded": 5663,
      "nes": 5664,
      "ping": 5665,
      "aster": 5666,
      "ressed": 5667,
      "ples": 5668,
      "phag": 5669,
      "actual": 5670,
      "hydrocarbon": 5671,
      "grown": 5672,
      "closely": 5673,
      "buff": 5674,
      "batteries": 5675,
      "eastern": 5676,
      "dietary": 5677,
      "companies": 5678,
      "prolonged": 5679,
      "cumulative": 5680,
      "aut": 5681,
      "pes": 5682,
      "org": 5683,
      "dia": 5684,
      "consec": 5685,
      "biology": 5686,
      "desorption": 5687,
      "glyce": 5688,
      "residual": 5689,
      "stimulated": 5690,
      "clearly": 5691,
      "adhesion": 5692,
      "nephro": 5693,
      "corrosion": 5694,
      "virtual": 5695,
      "gic": 5696,
      "kit": 5697,
      "tg": 5698,
      "inoc": 5699,
      "leak": 5700,
      "mother": 5701,
      "excess": 5702,
      "tea": 5703,
      "tend": 5704,
      "angular": 5705,
      "decades": 5706,
      "ava": 5707,
      "identity": 5708,
      "clinically": 5709,
      "learners": 5710,
      "deficit": 5711,
      "sulfur": 5712,
      "cnt": 5713,
      "connected": 5714,
      "c3": 5715,
      "rene": 5716,
      "ensure": 5717,
      "edge": 5718,
      "olds": 5719,
      "iring": 5720,
      "udinal": 5721,
      "team": 5722,
      "izer": 5723,
      "presentation": 5724,
      "ives": 5725,
      "experiences": 5726,
      "adaptive": 5727,
      "ammonia": 5728,
      "ambient": 5729,
      "amental": 5730,
      "l1": 5731,
      "pon": 5732,
      "zi": 5733,
      "ecological": 5734,
      "agnps": 5735,
      "oplas": 5736,
      "haem": 5737,
      "cyte": 5738,
      "genera": 5739,
      "thropo": 5740,
      "ohisto": 5741,
      "utilizing": 5742,
      "japanese": 5743,
      "microbiota": 5744,
      "install": 5745,
      "aromatic": 5746,
      "entrepre": 5747,
      "fd": 5748,
      "gland": 5749,
      "chy": 5750,
      "terti": 5751,
      "hole": 5752,
      "bias": 5753,
      "purch": 5754,
      "pancre": 5755,
      "substantial": 5756,
      "assembly": 5757,
      "dextrin": 5758,
      "memorial": 5759,
      "entrepreneur": 5760,
      "bg": 5761,
      "cv": 5762,
      "du": 5763,
      "zsm": 5764,
      "tho": 5765,
      "inver": 5766,
      "inside": 5767,
      "reconstruction": 5768,
      "roots": 5769,
      "ices": 5770,
      "live": 5771,
      "medication": 5772,
      "immunohisto": 5773,
      "bonding": 5774,
      "electrodes": 5775,
      "defects": 5776,
      "ogenous": 5777,
      "sequential": 5778,
      "situation": 5779,
      "numerous": 5780,
      "fundamental": 5781,
      "acquired": 5782,
      "alkaline": 5783,
      "narrow": 5784,
      "intellig": 5785,
      "hm": 5786,
      "mater": 5787,
      "vest": 5788,
      "thema": 5789,
      "ema": 5790,
      "reduces": 5791,
      "predictions": 5792,
      "combining": 5793,
      "law": 5794,
      "classes": 5795,
      "esterification": 5796,
      "trends": 5797,
      "professional": 5798,
      "credited": 5799,
      "pneumonia": 5800,
      "tertiary": 5801,
      "dft": 5802,
      "jug": 5803,
      "tely": 5804,
      "route": 5805,
      "coal": 5806,
      "antiretroviral": 5807,
      "longit": 5808,
      "physics": 5809,
      "requirements": 5810,
      "tube": 5811,
      "ather": 5812,
      "refin": 5813,
      "prophyl": 5814,
      "perspec": 5815,
      "parkin": 5816,
      "hair": 5817,
      "decline": 5818,
      "march": 5819,
      "pathophysi": 5820,
      "guide": 5821,
      "cytotoxic": 5822,
      "farms": 5823,
      "smoking": 5824,
      "flavon": 5825,
      "existence": 5826,
      "vag": 5827,
      "inking": 5828,
      "sten": 5829,
      "promp": 5830,
      "investigations": 5831,
      "efficiently": 5832,
      "equal": 5833,
      "complexity": 5834,
      "utility": 5835,
      "galax": 5836,
      "glaucoma": 5837,
      "parkinson": 5838,
      "follic": 5839,
      "rium": 5840,
      "reporting": 5841,
      "visit": 5842,
      "composed": 5843,
      "prevalent": 5844,
      "massive": 5845,
      "olytic": 5846,
      "routine": 5847,
      "physicochemical": 5848,
      "perspectives": 5849,
      "ank": 5850,
      "eli": 5851,
      "ultra": 5852,
      "dered": 5853,
      "sures": 5854,
      "reviews": 5855,
      "achieving": 5856,
      "osteogenic": 5857,
      "sulfon": 5858,
      "anode": 5859,
      "beyond": 5860,
      "fing": 5861,
      "native": 5862,
      "tus": 5863,
      "asd": 5864,
      "isother": 5865,
      "array": 5866,
      "che": 5867,
      "prelim": 5868,
      "frp": 5869,
      "polysac": 5870,
      "extracellular": 5871,
      "dependently": 5872,
      "possibility": 5873,
      "pm2": 5874,
      "phosphati": 5875,
      "filled": 5876,
      "titanium": 5877,
      "nick": 5878,
      "scat": 5879,
      "tm": 5880,
      "tel": 5881,
      "tai": 5882,
      "arth": 5883,
      "plane": 5884,
      "angi": 5885,
      "calcin": 5886,
      "veness": 5887,
      "subject": 5888,
      "transl": 5889,
      "bloc": 5890,
      "salmon": 5891,
      "strengthen": 5892,
      "collision": 5893,
      "account": 5894,
      "barriers": 5895,
      "contains": 5896,
      "peritoneal": 5897,
      "volunte": 5898,
      "cholesterol": 5899,
      "give": 5900,
      "onti": 5901,
      "olig": 5902,
      "chick": 5903,
      "ectin": 5904,
      "solve": 5905,
      "linking": 5906,
      "cirrho": 5907,
      "example": 5908,
      "budd": 5909,
      "longitudinal": 5910,
      "f1": 5911,
      "hl": 5912,
      "iver": 5913,
      "ovari": 5914,
      "rab": 5915,
      "semin": 5916,
      "overcome": 5917,
      "geneity": 5918,
      "omics": 5919,
      "influences": 5920,
      "cytokine": 5921,
      "incorporation": 5922,
      "smartphone": 5923,
      "obese": 5924,
      "compatibility": 5925,
      "delayed": 5926,
      "district": 5927,
      "vital": 5928,
      "zol": 5929,
      "intake": 5930,
      "mobility": 5931,
      "beams": 5932,
      "peg": 5933,
      "rhiz": 5934,
      "scenarios": 5935,
      "ken": 5936,
      "vinyl": 5937,
      "reforming": 5938,
      "return": 5939,
      "align": 5940,
      "altered": 5941,
      "resili": 5942,
      "option": 5943,
      "changing": 5944,
      "ventric": 5945,
      "industries": 5946,
      "conveni": 5947,
      "autom": 5948,
      "adipo": 5949,
      "fluorescent": 5950,
      "direction": 5951,
      "detailed": 5952,
      "scenario": 5953,
      "gauge": 5954,
      "ko": 5955,
      "v2": 5956,
      "asting": 5957,
      "hydrothermal": 5958,
      "supports": 5959,
      "improves": 5960,
      "immunity": 5961,
      "composi": 5962,
      "chron": 5963,
      "marked": 5964,
      "azole": 5965,
      "drying": 5966,
      "nevertheless": 5967,
      "fecal": 5968,
      "abstract": 5969,
      "mri": 5970,
      "zir": 5971,
      "uling": 5972,
      "olin": 5973,
      "no2": 5974,
      "shock": 5975,
      "plastics": 5976,
      "logic": 5977,
      "pva": 5978,
      "discuss": 5979,
      "filler": 5980,
      "clusters": 5981,
      "crystalline": 5982,
      "vulner": 5983,
      "repeated": 5984,
      "branching": 5985,
      "albumin": 5986,
      "arts": 5987,
      "igm": 5988,
      "split": 5989,
      "decreasing": 5990,
      "carbonate": 5991,
      "advance": 5992,
      "extension": 5993,
      "platelet": 5994,
      "opportun": 5995,
      "maternal": 5996,
      "zircon": 5997,
      "itin": 5998,
      "proven": 5999,
      "igible": 6000,
      "mentary": 6001,
      "noise": 6002,
      "carry": 6003,
      "thereby": 6004,
      "affinity": 6005,
      "holds": 6006,
      "azine": 6007,
      "bosons": 6008,
      "enterpr": 6009,
      "booster": 6010,
      "hormone": 6011,
      "neutrophil": 6012,
      "recipients": 6013,
      "sulation": 6014,
      "uro": 6015,
      "tice": 6016,
      "staphy": 6017,
      "coeffici": 6018,
      "mouth": 6019,
      "quad": 6020,
      "strip": 6021,
      "disability": 6022,
      "obstruc": 6023,
      "solved": 6024,
      "biochar": 6025,
      "immunogenicity": 6026,
      "toxin": 6027,
      "enzymatic": 6028,
      "comprised": 6029,
      "opportuni": 6030,
      "private": 6031,
      "coastal": 6032,
      "coefficients": 6033,
      "fications": 6034,
      "gely": 6035,
      "iot": 6036,
      "lich": 6037,
      "reason": 6038,
      "thetic": 6039,
      "fos": 6040,
      "2011": 6041,
      "minutes": 6042,
      "decays": 6043,
      "saline": 6044,
      "apply": 6045,
      "standards": 6046,
      "shaped": 6047,
      "encapsulation": 6048,
      "opportunities": 6049,
      "a1": 6050,
      "bag": 6051,
      "0001": 6052,
      "regimens": 6053,
      "oct": 6054,
      "econom": 6055,
      "indices": 6056,
      "typing": 6057,
      "graphs": 6058,
      "remaining": 6059,
      "histor": 6060,
      "percep": 6061,
      "candidates": 6062,
      "attributed": 6063,
      "cultures": 6064,
      "reflect": 6065,
      "satur": 6066,
      "highlights": 6067,
      "immobilized": 6068,
      "july": 6069,
      "consecutive": 6070,
      "staphylo": 6071,
      "dyl": 6072,
      "hla": 6073,
      "lis": 6074,
      "rac": 6075,
      "theories": 6076,
      "start": 6077,
      "cott": 6078,
      "conjug": 6079,
      "phr": 6080,
      "examines": 6081,
      "restor": 6082,
      "carrier": 6083,
      "customers": 6084,
      "reached": 6085,
      "zyg": 6086,
      "wal": 6087,
      "behalf": 6088,
      "ifer": 6089,
      "ibrium": 6090,
      "syst": 6091,
      "ogas": 6092,
      "lymphoma": 6093,
      "attenuated": 6094,
      "rainfall": 6095,
      "preliminary": 6096,
      "nickel": 6097,
      "fv": 6098,
      "ire": 6099,
      "sperm": 6100,
      "neigh": 6101,
      "grain": 6102,
      "modal": 6103,
      "inferior": 6104,
      "fractions": 6105,
      "foundation": 6106,
      "missing": 6107,
      "isolation": 6108,
      "alginate": 6109,
      "borne": 6110,
      "phenotype": 6111,
      "channels": 6112,
      "principles": 6113,
      "registration": 6114,
      "lumbar": 6115,
      "ammonium": 6116,
      "slope": 6117,
      "standardized": 6118,
      "dance": 6119,
      "anat": 6120,
      "onin": 6121,
      "arter": 6122,
      "ental": 6123,
      "investigates": 6124,
      "standing": 6125,
      "glomer": 6126,
      "tasks": 6127,
      "olymer": 6128,
      "lacto": 6129,
      "hepato": 6130,
      "streptomy": 6131,
      "kap": 6132,
      "sg": 6133,
      "sna": 6134,
      "ww": 6135,
      "seem": 6136,
      "cipl": 6137,
      "surround": 6138,
      "molecule": 6139,
      "emotional": 6140,
      "residue": 6141,
      "principal": 6142,
      "freshwater": 6143,
      "cultivation": 6144,
      "malignant": 6145,
      "habit": 6146,
      "cannab": 6147,
      "bm": 6148,
      "yeast": 6149,
      "projects": 6150,
      "atigue": 6151,
      "izumab": 6152,
      "preferen": 6153,
      "systematically": 6154,
      "cathe": 6155,
      "substr": 6156,
      "collagen": 6157,
      "protease": 6158,
      "typically": 6159,
      "herbal": 6160,
      "hemat": 6161,
      "hypothesis": 6162,
      "microbiome": 6163,
      "graduate": 6164,
      "ais": 6165,
      "retain": 6166,
      "once": 6167,
      "rot": 6168,
      "stay": 6169,
      "forward": 6170,
      "strati": 6171,
      "signals": 6172,
      "mediation": 6173,
      "blot": 6174,
      "mutant": 6175,
      "hydration": 6176,
      "allowing": 6177,
      "owing": 6178,
      "radical": 6179,
      "adhesive": 6180,
      "viscosity": 6181,
      "aver": 6182,
      "bub": 6183,
      "instruc": 6184,
      "independently": 6185,
      "veter": 6186,
      "absolute": 6187,
      "highlight": 6188,
      "spectral": 6189,
      "registry": 6190,
      "variability": 6191,
      "125": 6192,
      "liter": 6193,
      "employees": 6194,
      "engineers": 6195,
      "pseudo": 6196,
      "registered": 6197,
      "tructure": 6198,
      "managers": 6199,
      "fatigue": 6200,
      "sap": 6201,
      "ert": 6202,
      "actic": 6203,
      "concep": 6204,
      "heim": 6205,
      "discipl": 6206,
      "gradi": 6207,
      "implic": 6208,
      "organizations": 6209,
      "globin": 6210,
      "axial": 6211,
      "phosphor": 6212,
      "critically": 6213,
      "bulin": 6214,
      "starting": 6215,
      "comprising": 6216,
      "metastasis": 6217,
      "department": 6218,
      "substrates": 6219,
      "eo": 6220,
      "k1": 6221,
      "recycling": 6222,
      "atp": 6223,
      "iction": 6224,
      "wear": 6225,
      "shorter": 6226,
      "increasingly": 6227,
      "errors": 6228,
      "harvest": 6229,
      "abundant": 6230,
      "abnormalities": 6231,
      "equipment": 6232,
      "psychiatric": 6233,
      "bay": 6234,
      "cure": 6235,
      "hier": 6236,
      "kong": 6237,
      "sper": 6238,
      "ergy": 6239,
      "ch4": 6240,
      "phb": 6241,
      "inces": 6242,
      "interfer": 6243,
      "interleu": 6244,
      "imped": 6245,
      "002": 6246,
      "characterize": 6247,
      "isolate": 6248,
      "provinces": 6249,
      "docking": 6250,
      "orbital": 6251,
      "dust": 6252,
      "centre": 6253,
      "caro": 6254,
      "enses": 6255,
      "epis": 6256,
      "soils": 6257,
      "copies": 6258,
      "ranges": 6259,
      "easy": 6260,
      "platforms": 6261,
      "efforts": 6262,
      "saturated": 6263,
      "interleukin": 6264,
      "correl": 6265,
      "febr": 6266,
      "rise": 6267,
      "nanot": 6268,
      "ampl": 6269,
      "silk": 6270,
      "rehabil": 6271,
      "million": 6272,
      "stakeholders": 6273,
      "aries": 6274,
      "ellar": 6275,
      "encephal": 6276,
      "drinking": 6277,
      "cessive": 6278,
      "completely": 6279,
      "spheric": 6280,
      "partially": 6281,
      "categories": 6282,
      "families": 6283,
      "equilibrium": 6284,
      "fre": 6285,
      "urea": 6286,
      "transfusion": 6287,
      "epile": 6288,
      "jective": 6289,
      "scales": 6290,
      "pbs": 6291,
      "idization": 6292,
      "fungi": 6293,
      "finger": 6294,
      "hierarch": 6295,
      "nap": 6296,
      "sun": 6297,
      "tham": 6298,
      "station": 6299,
      "weighted": 6300,
      "trap": 6301,
      "corne": 6302,
      "relap": 6303,
      "pubmed": 6304,
      "whose": 6305,
      "basal": 6306,
      "closure": 6307,
      "searched": 6308,
      "contributes": 6309,
      "h2o2": 6310,
      "separated": 6311,
      "persons": 6312,
      "flexible": 6313,
      "easily": 6314,
      "aquac": 6315,
      "alterations": 6316,
      "taxonomic": 6317,
      "appeared": 6318,
      "abdominal": 6319,
      "salmonella": 6320,
      "250": 6321,
      "avir": 6322,
      "acto": 6323,
      "itus": 6324,
      "unger": 6325,
      "prrsv": 6326,
      "medications": 6327,
      "name": 6328,
      "polyethylene": 6329,
      "estimates": 6330,
      "genotypes": 6331,
      "segment": 6332,
      "instrument": 6333,
      "streptomyces": 6334,
      "c2": 6335,
      "ether": 6336,
      "xide": 6337,
      "represented": 6338,
      "aldehyde": 6339,
      "rock": 6340,
      "staff": 6341,
      "connec": 6342,
      "cler": 6343,
      "aching": 6344,
      "household": 6345,
      "bench": 6346,
      "scaffolds": 6347,
      "configuration": 6348,
      "check": 6349,
      "besides": 6350,
      "staphylococcus": 6351,
      "rf": 6352,
      "ull": 6353,
      "moist": 6354,
      "embr": 6355,
      "cities": 6356,
      "modulation": 6357,
      "oscopy": 6358,
      "myel": 6359,
      "neurological": 6360,
      "consist": 6361,
      "progress": 6362,
      "batch": 6363,
      "focusing": 6364,
      "makers": 6365,
      "nanofib": 6366,
      "leadership": 6367,
      "aureus": 6368,
      "endemic": 6369,
      "morbidity": 6370,
      "hind": 6371,
      "lp": 6372,
      "osition": 6373,
      "ativ": 6374,
      "compet": 6375,
      "neon": 6376,
      "allergic": 6377,
      "primarily": 6378,
      "conflic": 6379,
      "platin": 6380,
      "transcripto": 6381,
      "caregivers": 6382,
      "hid": 6383,
      "iltration": 6384,
      "compression": 6385,
      "string": 6386,
      "omonas": 6387,
      "preferred": 6388,
      "cao": 6389,
      "fever": 6390,
      "suppl": 6391,
      "swine": 6392,
      "priori": 6393,
      "largest": 6394,
      "fluoride": 6395,
      "retrie": 6396,
      "ventricular": 6397,
      "automated": 6398,
      "gained": 6399,
      "h4": 6400,
      "ned": 6401,
      "aniso": 6402,
      "anaerobic": 6403,
      "rose": 6404,
      "tioned": 6405,
      "ischem": 6406,
      "admission": 6407,
      "extra": 6408,
      "hybr": 6409,
      "differ": 6410,
      "caries": 6411,
      "minor": 6412,
      "manage": 6413,
      "subgroup": 6414,
      "ishman": 6415,
      "porcine": 6416,
      "indicator": 6417,
      "participated": 6418,
      "scalar": 6419,
      "validate": 6420,
      "chiang": 6421,
      "contributing": 6422,
      "maintained": 6423,
      "parasites": 6424,
      "korean": 6425,
      "encapsulated": 6426,
      "aquaculture": 6427,
      "jection": 6428,
      "mell": 6429,
      "mature": 6430,
      "ulum": 6431,
      "promin": 6432,
      "chor": 6433,
      "april": 6434,
      "biogas": 6435,
      "outbreak": 6436,
      "tempor": 6437,
      "operations": 6438,
      "apped": 6439,
      "younger": 6440,
      "faster": 6441,
      "colostr": 6442,
      "discovered": 6443,
      "originality": 6444,
      "sidase": 6445,
      "amplification": 6446,
      "cool": 6447,
      "leishman": 6448,
      "adsorbent": 6449,
      "microscope": 6450,
      "concluded": 6451,
      "oxidase": 6452,
      "coster": 6453,
      "intravenous": 6454,
      "nutrient": 6455,
      "emergence": 6456,
      "volatile": 6457,
      "rehabilitation": 6458,
      "ont": 6459,
      "icular": 6460,
      "clar": 6461,
      "compact": 6462,
      "2010": 6463,
      "entire": 6464,
      "octo": 6465,
      "cape": 6466,
      "welling": 6467,
      "goals": 6468,
      "circu": 6469,
      "frequencies": 6470,
      "infras": 6471,
      "insertion": 6472,
      "arthritis": 6473,
      "cds": 6474,
      "naf": 6475,
      "spray": 6476,
      "osen": 6477,
      "2012": 6478,
      "performing": 6479,
      "subunit": 6480,
      "decreases": 6481,
      "retrospectively": 6482,
      "leptons": 6483,
      "corticoster": 6484,
      "ball": 6485,
      "dated": 6486,
      "lan": 6487,
      "libr": 6488,
      "elic": 6489,
      "internet": 6490,
      "drop": 6491,
      "sharing": 6492,
      "biochemical": 6493,
      "enhances": 6494,
      "magnit": 6495,
      "cnts": 6496,
      "positioning": 6497,
      "formulations": 6498,
      "flexibility": 6499,
      "computing": 6500,
      "feasible": 6501,
      "asympto": 6502,
      "compositions": 6503,
      "bcl": 6504,
      "eb": 6505,
      "regn": 6506,
      "grass": 6507,
      "interfacial": 6508,
      "paired": 6509,
      "fe3": 6510,
      "biodegrad": 6511,
      "microwave": 6512,
      "requiring": 6513,
      "cmc": 6514,
      "reinforce": 6515,
      "phenotypic": 6516,
      "interpretation": 6517,
      "orientation": 6518,
      "parents": 6519,
      "extrem": 6520,
      "cass": 6521,
      "coffe": 6522,
      "rm": 6523,
      "scr": 6524,
      "eclamp": 6525,
      "iga": 6526,
      "plc": 6527,
      "impregn": 6528,
      "share": 6529,
      "creatin": 6530,
      "works": 6531,
      "immunos": 6532,
      "receiver": 6533,
      "necrosis": 6534,
      "schools": 6535,
      "decomposition": 6536,
      "creatinine": 6537,
      "i2": 6538,
      "m3": 6539,
      "rbd": 6540,
      "elding": 6541,
      "united": 6542,
      "fier": 6543,
      "invari": 6544,
      "shared": 6545,
      "breaks": 6546,
      "assium": 6547,
      "localization": 6548,
      "removed": 6549,
      "frequent": 6550,
      "occurs": 6551,
      "potassium": 6552,
      "antiviral": 6553,
      "gradient": 6554,
      "cast": 6555,
      "mapping": 6556,
      "wss": 6557,
      "represents": 6558,
      "onitis": 6559,
      "ada": 6560,
      "student": 6561,
      "additive": 6562,
      "traum": 6563,
      "predictor": 6564,
      "improvements": 6565,
      "panel": 6566,
      "atmospheric": 6567,
      "prophylaxis": 6568,
      "veterinary": 6569,
      "ime": 6570,
      "mind": 6571,
      "song": 6572,
      "instead": 6573,
      "seiz": 6574,
      "move": 6575,
      "aba": 6576,
      "amate": 6577,
      "embase": 6578,
      "genital": 6579,
      "cyp": 6580,
      "mathema": 6581,
      "coral": 6582,
      "virul": 6583,
      "operational": 6584,
      "continued": 6585,
      "medicinal": 6586,
      "assembl": 6587,
      "df": 6588,
      "hus": 6589,
      "oking": 6590,
      "clonal": 6591,
      "comfor": 6592,
      "deple": 6593,
      "designing": 6594,
      "office": 6595,
      "layered": 6596,
      "colorectal": 6597,
      "protocols": 6598,
      "illustrated": 6599,
      "reversible": 6600,
      "horizontal": 6601,
      "prompt": 6602,
      "gulf": 6603,
      "itic": 6604,
      "rp": 6605,
      "ya": 6606,
      "forty": 6607,
      "compens": 6608,
      "disc": 6609,
      "cancers": 6610,
      "acetic": 6611,
      "solvents": 6612,
      "capable": 6613,
      "colle": 6614,
      "pathy": 6615,
      "protect": 6616,
      "consistency": 6617,
      "consumer": 6618,
      "reactors": 6619,
      "intervals": 6620,
      "biofu": 6621,
      "cambo": 6622,
      "pathophysiology": 6623,
      "kd": 6624,
      "nacl": 6625,
      "rhe": 6626,
      "zen": 6627,
      "anomal": 6628,
      "alo": 6629,
      "rogen": 6630,
      "stack": 6631,
      "covered": 6632,
      "ibs": 6633,
      "solving": 6634,
      "illation": 6635,
      "expressions": 6636,
      "ova": 6637,
      "bank": 6638,
      "academy": 6639,
      "compatible": 6640,
      "perceptions": 6641,
      "cel": 6642,
      "iu": 6643,
      "ix": 6644,
      "wol": 6645,
      "ys": 6646,
      "legal": 6647,
      "viable": 6648,
      "redox": 6649,
      "canal": 6650,
      "ventil": 6651,
      "plasmodi": 6652,
      "apparent": 6653,
      "mesop": 6654,
      "bilateral": 6655,
      "formulated": 6656,
      "instruments": 6657,
      "ofluid": 6658,
      "australia": 6659,
      "arterial": 6660,
      "hbs": 6661,
      "ula": 6662,
      "proxim": 6663,
      "valence": 6664,
      "preoperative": 6665,
      "iae": 6666,
      "afric": 6667,
      "acidic": 6668,
      "north": 6669,
      "physicians": 6670,
      "progressive": 6671,
      "adjuv": 6672,
      "chains": 6673,
      "governance": 6674,
      "sediments": 6675,
      "prognosis": 6676,
      "makes": 6677,
      "incident": 6678,
      "dol": 6679,
      "inus": 6680,
      "degenerative": 6681,
      "dielectric": 6682,
      "exact": 6683,
      "verified": 6684,
      "upregulated": 6685,
      "preven": 6686,
      "performs": 6687,
      "epider": 6688,
      "purposes": 6689,
      "sustained": 6690,
      "maintaining": 6691,
      "susceptible": 6692,
      "anesthesia": 6693,
      "sha": 6694,
      "tap": 6695,
      "ese": 6696,
      "cochr": 6697,
      "dem": 6698,
      "consequences": 6699,
      "apore": 6700,
      "disaster": 6701,
      "geop": 6702,
      "modelling": 6703,
      "dried": 6704,
      "creating": 6705,
      "participation": 6706,
      "depends": 6707,
      "cnn": 6708,
      "consideration": 6709,
      "parasite": 6710,
      "examples": 6711,
      "salivary": 6712,
      "arsenic": 6713,
      "polysaccharide": 6714,
      "ovarian": 6715,
      "eclampsia": 6716,
      "cca": 6717,
      "ek": 6718,
      "ored": 6719,
      "tization": 6720,
      "cope": 6721,
      "hom": 6722,
      "positions": 6723,
      "sorbed": 6724,
      "timate": 6725,
      "therapies": 6726,
      "promoter": 6727,
      "programming": 6728,
      "contributed": 6729,
      "regardless": 6730,
      "allowed": 6731,
      "concerning": 6732,
      "facilities": 6733,
      "scaven": 6734,
      "expert": 6735,
      "peritonitis": 6736,
      "scaffold": 6737,
      "aunps": 6738,
      "800": 6739,
      "ament": 6740,
      "nn": 6741,
      "tase": 6742,
      "ismic": 6743,
      "sides": 6744,
      "exce": 6745,
      "allergen": 6746,
      "bium": 6747,
      "impl": 6748,
      "surge": 6749,
      "investigating": 6750,
      "istin": 6751,
      "meaning": 6752,
      "india": 6753,
      "integrity": 6754,
      "muon": 6755,
      "representative": 6756,
      "acceptance": 6757,
      "description": 6758,
      "multivariable": 6759,
      "vacu": 6760,
      "spontaneous": 6761,
      "multicenter": 6762,
      "cirrhosis": 6763,
      "october": 6764,
      "preventive": 6765,
      "rip": 6766,
      "voc": 6767,
      "wis": 6768,
      "warr": 6769,
      "anted": 6770,
      "butyl": 6771,
      "singapore": 6772,
      "expensive": 6773,
      "162": 6774,
      "genesis": 6775,
      "attributes": 6776,
      "histological": 6777,
      "neutralizing": 6778,
      "spherical": 6779,
      "rational": 6780,
      "tag": 6781,
      "vapor": 6782,
      "alle": 6783,
      "proved": 6784,
      "lox": 6785,
      "options": 6786,
      "cran": 6787,
      "invent": 6788,
      "variate": 6789,
      "trade": 6790,
      "filter": 6791,
      "meso": 6792,
      "ophthal": 6793,
      "surveys": 6794,
      "phosphory": 6795,
      "separate": 6796,
      "likeli": 6797,
      "derivative": 6798,
      "khon": 6799,
      "alloys": 6800,
      "emergency": 6801,
      "historical": 6802,
      "zygous": 6803,
      "ares": 6804,
      "aques": 6805,
      "kar": 6806,
      "inn": 6807,
      "eno": 6808,
      "sities": 6809,
      "span": 6810,
      "energies": 6811,
      "describes": 6812,
      "suspected": 6813,
      "likelihood": 6814,
      "thio": 6815,
      "ablation": 6816,
      "medline": 6817,
      "pak": 6818,
      "developmental": 6819,
      "phosp": 6820,
      "macaques": 6821,
      "bridge": 6822,
      "carriers": 6823,
      "incorporating": 6824,
      "puts": 6825,
      "clearance": 6826,
      "satell": 6827,
      "propylene": 6828,
      "pharmacokinetic": 6829,
      "myocardi": 6830,
      "colostrum": 6831,
      "cochrane": 6832,
      "kda": 6833,
      "len": 6834,
      "tid": 6835,
      "illo": 6836,
      "quarti": 6837,
      "udge": 6838,
      "compli": 6839,
      "preference": 6840,
      "analyzing": 6841,
      "matching": 6842,
      "nanom": 6843,
      "180": 6844,
      "conduct": 6845,
      "conducting": 6846,
      "topical": 6847,
      "simplified": 6848,
      "glucosidase": 6849,
      "conceptual": 6850,
      "categorized": 6851,
      "constitu": 6852,
      "complication": 6853,
      "distinguish": 6854,
      "volunteers": 6855,
      "kal": 6856,
      "ln": 6857,
      "mess": 6858,
      "enable": 6859,
      "encoding": 6860,
      "siam": 6861,
      "seismic": 6862,
      "2000": 6863,
      "mai": 6864,
      "berg": 6865,
      "aterials": 6866,
      "periodonti": 6867,
      "estimating": 6868,
      "distur": 6869,
      "regulating": 6870,
      "initially": 6871,
      "pharmacological": 6872,
      "ultrason": 6873,
      "requirement": 6874,
      "gaps": 6875,
      "blends": 6876,
      "marketing": 6877,
      "phosphorus": 6878,
      "infrastructure": 6879,
      "wssv": 6880,
      "border": 6881,
      "game": 6882,
      "han": 6883,
      "bow": 6884,
      "deploy": 6885,
      "prepare": 6886,
      "gelatin": 6887,
      "cutting": 6888,
      "largely": 6889,
      "entero": 6890,
      "coronary": 6891,
      "smooth": 6892,
      "atoms": 6893,
      "spaces": 6894,
      "digestion": 6895,
      "catheter": 6896,
      "concepts": 6897,
      "aids": 6898,
      "ycin": 6899,
      "train": 6900,
      "wastes": 6901,
      "spinal": 6902,
      "object": 6903,
      "005": 6904,
      "century": 6905,
      "creation": 6906,
      "stis": 6907,
      "colistin": 6908,
      "capacit": 6909,
      "insic": 6910,
      "built": 6911,
      "adaptation": 6912,
      "augmentation": 6913,
      "screened": 6914,
      "packaging": 6915,
      "writing": 6916,
      "homogeneous": 6917,
      "deposited": 6918,
      "elongation": 6919,
      "phosphatidyl": 6920,
      "bnt": 6921,
      "sba": 6922,
      "tps": 6923,
      "esoph": 6924,
      "rog": 6925,
      "resection": 6926,
      "untreated": 6927,
      "tron": 6928,
      "viro": 6929,
      "thermodynamic": 6930,
      "aft": 6931,
      "aired": 6932,
      "microstructure": 6933,
      "microscopic": 6934,
      "quantity": 6935,
      "dentin": 6936,
      "representing": 6937,
      "supplemented": 6938,
      "donor": 6939,
      "conservation": 6940,
      "biosens": 6941,
      "pilot": 6942,
      "galaxies": 6943,
      "mesoporous": 6944,
      "f2": 6945,
      "cone": 6946,
      "mous": 6947,
      "node": 6948,
      "phthal": 6949,
      "peer": 6950,
      "driving": 6951,
      "subjective": 6952,
      "measuring": 6953,
      "employing": 6954,
      "extensively": 6955,
      "residents": 6956,
      "thalassem": 6957,
      "deaths": 6958,
      "deliver": 6959,
      "lactate": 6960,
      "interpreted": 6961,
      "thalassemia": 6962,
      "aur": 6963,
      "l2": 6964,
      "mmol": 6965,
      "dio": 6966,
      "opin": 6967,
      "gence": 6968,
      "curves": 6969,
      "microalgae": 6970,
      "cm2": 6971,
      "ltdthe": 6972,
      "classify": 6973,
      "released": 6974,
      "flexural": 6975,
      "doping": 6976,
      "accounting": 6977,
      "substitution": 6978,
      "amylo": 6979,
      "haplo": 6980,
      "mellitus": 6981,
      "allevi": 6982,
      "db": 6983,
      "eti": 6984,
      "kp": 6985,
      "anthropo": 6986,
      "isons": 6987,
      "resses": 6988,
      "diarr": 6989,
      "mea": 6990,
      "chosen": 6991,
      "nod": 6992,
      "tended": 6993,
      "impaired": 6994,
      "microorganisms": 6995,
      "mium": 6996,
      "sessions": 6997,
      "gans": 6998,
      "involves": 6999,
      "globally": 7000,
      "feedstock": 7001,
      "considerable": 7002,
      "receptors": 7003,
      "sterone": 7004,
      "dosage": 7005,
      "emerged": 7006,
      "evolutionary": 7007,
      "phenotypes": 7008,
      "repeat": 7009,
      "attenuation": 7010,
      "aspect": 7011,
      "polymorphisms": 7012,
      "forecasting": 7013,
      "atrial": 7014,
      "applicable": 7015,
      "attractive": 7016,
      "surrounding": 7017,
      "prominent": 7018,
      "usual": 7019,
      "ulin": 7020,
      "seman": 7021,
      "immediate": 7022,
      "nom": 7023,
      "oglo": 7024,
      "lique": 7025,
      "earli": 7026,
      "cortical": 7027,
      "generating": 7028,
      "trophic": 7029,
      "evol": 7030,
      "mentioned": 7031,
      "mda": 7032,
      "occurring": 7033,
      "nutritional": 7034,
      "rank": 7035,
      "appears": 7036,
      "terminal": 7037,
      "comfort": 7038,
      "110": 7039,
      "3a": 7040,
      "lst": 7041,
      "muc": 7042,
      "s1": 7043,
      "scor": 7044,
      "anatom": 7045,
      "ero": 7046,
      "orrh": 7047,
      "veget": 7048,
      "amor": 7049,
      "003": 7050,
      "ceramic": 7051,
      "presenting": 7052,
      "photon": 7053,
      "mediating": 7054,
      "follows": 7055,
      "inium": 7056,
      "radius": 7057,
      "lifetime": 7058,
      "limitation": 7059,
      "loads": 7060,
      "classical": 7061,
      "columns": 7062,
      "agriculture": 7063,
      "raman": 7064,
      "acrylate": 7065,
      "roughness": 7066,
      "leakage": 7067,
      "scattering": 7068,
      "circuit": 7069,
      "magnitude": 7070,
      "g6": 7071,
      "harm": 7072,
      "pem": 7073,
      "rus": 7074,
      "vch": 7075,
      "till": 7076,
      "arial": 7077,
      "sian": 7078,
      "irable": 7079,
      "aine": 7080,
      "displacement": 7081,
      "efflu": 7082,
      "monito": 7083,
      "twice": 7084,
      "dram": 7085,
      "biomed": 7086,
      "gasification": 7087,
      "promotion": 7088,
      "helps": 7089,
      "volutional": 7090,
      "prototype": 7091,
      "decisions": 7092,
      "dtmu": 7093,
      "paste": 7094,
      "opportunity": 7095,
      "coffee": 7096,
      "quartile": 7097,
      "monitored": 7098,
      "dox": 7099,
      "ancies": 7100,
      "reasons": 7101,
      "atro": 7102,
      "asth": 7103,
      "forces": 7104,
      "convolutional": 7105,
      "ighting": 7106,
      "plann": 7107,
      "updated": 7108,
      "gru": 7109,
      "precise": 7110,
      "methoxy": 7111,
      "fire": 7112,
      "hydrolys": 7113,
      "combinations": 7114,
      "recovered": 7115,
      "circum": 7116,
      "collaborative": 7117,
      "cyclodextrin": 7118,
      "impedance": 7119,
      "hybridization": 7120,
      "bif": 7121,
      "cig": 7122,
      "acial": 7123,
      "bearing": 7124,
      "ibular": 7125,
      "crp": 7126,
      "oxford": 7127,
      "occl": 7128,
      "comparisons": 7129,
      "turb": 7130,
      "youth": 7131,
      "heterogeneity": 7132,
      "bulk": 7133,
      "obacterium": 7134,
      "appearance": 7135,
      "possessed": 7136,
      "chromo": 7137,
      "precursor": 7138,
      "corneal": 7139,
      "plasmodium": 7140,
      "n1": 7141,
      "oing": 7142,
      "sb": 7143,
      "wer": 7144,
      "orbi": 7145,
      "acent": 7146,
      "pero": 7147,
      "supr": 7148,
      "focal": 7149,
      "saving": 7150,
      "approved": 7151,
      "lowering": 7152,
      "smes": 7153,
      "lined": 7154,
      "fault": 7155,
      "ready": 7156,
      "speech": 7157,
      "corrected": 7158,
      "metastatic": 7159,
      "persistent": 7160,
      "permeability": 7161,
      "pancreatic": 7162,
      "resilience": 7163,
      "ischemic": 7164,
      "mathematical": 7165,
      "periodontitis": 7166,
      "jak": 7167,
      "ica": 7168,
      "preeclampsia": 7169,
      "mangro": 7170,
      "bonds": 7171,
      "strategic": 7172,
      "organs": 7173,
      "quantification": 7174,
      "detectable": 7175,
      "stronger": 7176,
      "practition": 7177,
      "relevance": 7178,
      "aggregation": 7179,
      "pollut": 7180,
      "gh": 7181,
      "iary": 7182,
      "iasis": 7183,
      "mcf": 7184,
      "icate": 7185,
      "eligible": 7186,
      "true": 7187,
      "atite": 7188,
      "ongoing": 7189,
      "notably": 7190,
      "translation": 7191,
      "operated": 7192,
      "sense": 7193,
      "oides": 7194,
      "eletal": 7195,
      "functionalized": 7196,
      "similarly": 7197,
      "plantar": 7198,
      "2009": 7199,
      "preventing": 7200,
      "tolerant": 7201,
      "complicated": 7202,
      "literacy": 7203,
      "innate": 7204,
      "ausal": 7205,
      "gall": 7206,
      "lf": 7207,
      "mcs": 7208,
      "swe": 7209,
      "stations": 7210,
      "dil": 7211,
      "meet": 7212,
      "spent": 7213,
      "clc": 7214,
      "106": 7215,
      "oxides": 7216,
      "meanwhile": 7217,
      "compart": 7218,
      "cu2": 7219,
      "minimize": 7220,
      "keratin": 7221,
      "mucosal": 7222,
      "lithium": 7223,
      "secretion": 7224,
      "zro": 7225,
      "enr": 7226,
      "alve": 7227,
      "icu": 7228,
      "leg": 7229,
      "deformation": 7230,
      "incubation": 7231,
      "infer": 7232,
      "antifungal": 7233,
      "technological": 7234,
      "ideal": 7235,
      "nanos": 7236,
      "nanoparticle": 7237,
      "adjusting": 7238,
      "nearly": 7239,
      "markets": 7240,
      "enriched": 7241,
      "attachment": 7242,
      "enterprises": 7243,
      "fural": 7244,
      "pine": 7245,
      "anine": 7246,
      "atitis": 7247,
      "so4": 7248,
      "anten": 7249,
      "hawc": 7250,
      "ologous": 7251,
      "biosynthesis": 7252,
      "fertil": 7253,
      "induces": 7254,
      "gluc": 7255,
      "surviv": 7256,
      "maximal": 7257,
      "wavel": 7258,
      "adjustment": 7259,
      "polarization": 7260,
      "manager": 7261,
      "menopausal": 7262,
      "700": 7263,
      "kind": 7264,
      "vig": 7265,
      "anova": 7266,
      "atomic": 7267,
      "look": 7268,
      "verify": 7269,
      "opening": 7270,
      "phon": 7271,
      "comb": 7272,
      "hyth": 7273,
      "mae": 7274,
      "brie": 7275,
      "hydroxyl": 7276,
      "creativ": 7277,
      "morpho": 7278,
      "purified": 7279,
      "gastric": 7280,
      "hospitalized": 7281,
      "limiting": 7282,
      "biliary": 7283,
      "recommendation": 7284,
      "retinal": 7285,
      "carboxy": 7286,
      "transient": 7287,
      "moisture": 7288,
      "1a": 7289,
      "n4": 7290,
      "robo": 7291,
      "codes": 7292,
      "nover": 7293,
      "hea": 7294,
      "dissemin": 7295,
      "dermal": 7296,
      "desired": 7297,
      "furfural": 7298,
      "porosity": 7299,
      "universi": 7300,
      "profit": 7301,
      "neuronal": 7302,
      "voltam": 7303,
      "initiated": 7304,
      "seasonal": 7305,
      "configur": 7306,
      "atmosphere": 7307,
      "temporary": 7308,
      "nafld": 7309,
      "asymptomatic": 7310,
      "ever": 7311,
      "wax": 7312,
      "accompan": 7313,
      "agar": 7314,
      "peroxide": 7315,
      "lipp": 7316,
      "specimen": 7317,
      "ubes": 7318,
      "mini": 7319,
      "shi": 7320,
      "turnover": 7321,
      "ostin": 7322,
      "accordingly": 7323,
      "teacher": 7324,
      "lymph": 7325,
      "apoptotic": 7326,
      "alteration": 7327,
      "acquis": 7328,
      "asym": 7329,
      "leptospi": 7330,
      "fifty": 7331,
      "epidemiology": 7332,
      "purchase": 7333,
      "library": 7334,
      "dementi": 7335,
      "satellite": 7336,
      "disturb": 7337,
      "oglobulin": 7338,
      "dtmuv": 7339,
      "ao": 7340,
      "gp": 7341,
      "ptic": 7342,
      "rv": 7343,
      "s2": 7344,
      "sds": 7345,
      "tium": 7346,
      "stac": 7347,
      "module": 7348,
      "socie": 7349,
      "anger": 7350,
      "operators": 7351,
      "facile": 7352,
      "purity": 7353,
      "accurately": 7354,
      "flows": 7355,
      "build": 7356,
      "classroom": 7357,
      "septem": 7358,
      "glutamate": 7359,
      "vehicles": 7360,
      "substantially": 7361,
      "persist": 7362,
      "crisis": 7363,
      "vaginal": 7364,
      "inventory": 7365,
      "accompanied": 7366,
      "september": 7367,
      "dressing": 7368,
      "eq": 7369,
      "fect": 7370,
      "oce": 7371,
      "pip": 7372,
      "attain": 7373,
      "attract": 7374,
      "leum": 7375,
      "usability": 7376,
      "agro": 7377,
      "amid": 7378,
      "spine": 7379,
      "ione": 7380,
      "interquartile": 7381,
      "corpus": 7382,
      "select": 7383,
      "counts": 7384,
      "partners": 7385,
      "calculate": 7386,
      "autophag": 7387,
      "criterion": 7388,
      "lacking": 7389,
      "motivation": 7390,
      "hemoglobin": 7391,
      "pesticide": 7392,
      "chymal": 7393,
      "semantic": 7394,
      "anatomical": 7395,
      "dementia": 7396,
      "eigh": 7397,
      "iod": 7398,
      "rail": 7399,
      "spot": 7400,
      "onuc": 7401,
      "arthro": 7402,
      "olec": 7403,
      "allele": 7404,
      "catho": 7405,
      "clinicians": 7406,
      "visits": 7407,
      "member": 7408,
      "sensory": 7409,
      "cuo": 7410,
      "buildings": 7411,
      "august": 7412,
      "endothelial": 7413,
      "geographic": 7414,
      "stabilized": 7415,
      "macrophage": 7416,
      "dendro": 7417,
      "supersymmetric": 7418,
      "hepatocellular": 7419,
      "disciplinary": 7420,
      "cathode": 7421,
      "fame": 7422,
      "hn": 7423,
      "klu": 7424,
      "mh": 7425,
      "ography": 7426,
      "pna": 7427,
      "qds": 7428,
      "tar": 7429,
      "inner": 7430,
      "thening": 7431,
      "icidal": 7432,
      "icillin": 7433,
      "boo": 7434,
      "relig": 7435,
      "shar": 7436,
      "named": 7437,
      "providers": 7438,
      "metrics": 7439,
      "transferase": 7440,
      "adium": 7441,
      "petroleum": 7442,
      "immunohistochemistry": 7443,
      "walking": 7444,
      "cx": 7445,
      "cocon": 7446,
      "soc": 7447,
      "obstac": 7448,
      "drain": 7449,
      "103": 7450,
      "remove": 7451,
      "failed": 7452,
      "sheet": 7453,
      "downstream": 7454,
      "stood": 7455,
      "cerebral": 7456,
      "microfluid": 7457,
      "exploring": 7458,
      "cationic": 7459,
      "earthqu": 7460,
      "reinforcement": 7461,
      "geopolymer": 7462,
      "planned": 7463,
      "c1": 7464,
      "ler": 7465,
      "mk": 7466,
      "arbo": 7467,
      "arrange": 7468,
      "chest": 7469,
      "tere": 7470,
      "civil": 7471,
      "monte": 7472,
      "004": 7473,
      "hydroxide": 7474,
      "13tev": 7475,
      "plasmid": 7476,
      "piper": 7477,
      "advances": 7478,
      "fuels": 7479,
      "sixty": 7480,
      "pension": 7481,
      "satisfactory": 7482,
      "adapt": 7483,
      "steroid": 7484,
      "segmentation": 7485,
      "discrimination": 7486,
      "snake": 7487,
      "cambodia": 7488,
      "practitioners": 7489,
      "zro2": 7490,
      "coconut": 7491,
      "mdr": 7492,
      "mgo": 7493,
      "isof": 7494,
      "quasi": 7495,
      "nea": 7496,
      "bov": 7497,
      "aryn": 7498,
      "berry": 7499,
      "traits": 7500,
      "fermented": 7501,
      "cutoff": 7502,
      "nitrate": 7503,
      "comprehen": 7504,
      "benzox": 7505,
      "elucidated": 7506,
      "falci": 7507,
      "carrying": 7508,
      "neonatal": 7509,
      "bnt162": 7510,
      "1β": 7511,
      "aes": 7512,
      "happ": 7513,
      "mcm": 7514,
      "erative": 7515,
      "ceo2": 7516,
      "adox": 7517,
      "immedi": 7518,
      "irrig": 7519,
      "pls": 7520,
      "lives": 7521,
      "understood": 7522,
      "subtypes": 7523,
      "etc": 7524,
      "matric": 7525,
      "fibr": 7526,
      "filtration": 7527,
      "delta": 7528,
      "adjacent": 7529,
      "environmentally": 7530,
      "silicate": 7531,
      "zn2": 7532,
      "greatly": 7533,
      "sinus": 7534,
      "farming": 7535,
      "homeost": 7536,
      "saliva": 7537,
      "mammal": 7538,
      "lactobacillus": 7539,
      "biomedical": 7540,
      "alveolar": 7541,
      "bnt162b2": 7542,
      "dg": 7543,
      "pent": 7544,
      "vr": 7545,
      "vess": 7546,
      "alz": 7547,
      "acer": 7548,
      "consor": 7549,
      "somal": 7550,
      "opre": 7551,
      "negl": 7552,
      "ested": 7553,
      "coming": 7554,
      "osac": 7555,
      "curing": 7556,
      "immunoglobulin": 7557,
      "determinants": 7558,
      "childhood": 7559,
      "contributions": 7560,
      "eeg": 7561,
      "intrinsic": 7562,
      "nucleic": 7563,
      "transformed": 7564,
      "sludge": 7565,
      "blockchain": 7566,
      "attack": 7567,
      "invasion": 7568,
      "predominantly": 7569,
      "remarkable": 7570,
      "embry": 7571,
      "competence": 7572,
      "bach": 7573,
      "bmd": 7574,
      "mx": 7575,
      "ware": 7576,
      "acne": 7577,
      "dities": 7578,
      "cephal": 7579,
      "bean": 7580,
      "noted": 7581,
      "tyro": 7582,
      "101": 7583,
      "capabilities": 7584,
      "match": 7585,
      "buty": 7586,
      "affective": 7587,
      "dele": 7588,
      "hospitalization": 7589,
      "willing": 7590,
      "pulse": 7591,
      "losses": 7592,
      "buri": 7593,
      "contract": 7594,
      "representation": 7595,
      "greatest": 7596,
      "odontic": 7597,
      "interferon": 7598,
      "adjuvant": 7599,
      "scavenging": 7600,
      "implants": 7601,
      "g6pd": 7602,
      "eos": 7603,
      "sam": 7604,
      "thesis": 7605,
      "enem": 7606,
      "robot": 7607,
      "idine": 7608,
      "tica": 7609,
      "beads": 7610,
      "washing": 7611,
      "clade": 7612,
      "embol": 7613,
      "oming": 7614,
      "cystis": 7615,
      "ips": 7616,
      "outbreaks": 7617,
      "naoh": 7618,
      "goats": 7619,
      "modifications": 7620,
      "omicron": 7621,
      "pdl": 7622,
      "fluc": 7623,
      "succin": 7624,
      "radiotherapy": 7625,
      "experimentally": 7626,
      "extend": 7627,
      "music": 7628,
      "silane": 7629,
      "resonances": 7630,
      "crystallinity": 7631,
      "spira": 7632,
      "attempts": 7633,
      "manifestations": 7634,
      "fibroblast": 7635,
      "buddhist": 7636,
      "lichen": 7637,
      "heimer": 7638,
      "extremely": 7639,
      "myocardial": 7640,
      "asthma": 7641,
      "fies": 7642,
      "kers": 7643,
      "rated": 7644,
      "degre": 7645,
      "dimin": 7646,
      "parum": 7647,
      "respective": 7648,
      "carlo": 7649,
      "marg": 7650,
      "synecho": 7651,
      "inescence": 7652,
      "csr": 7653,
      "nsclc": 7654,
      "silico": 7655,
      "pharmacists": 7656,
      "supplement": 7657,
      "retail": 7658,
      "ophyll": 7659,
      "stored": 7660,
      "probiotics": 7661,
      "virulence": 7662,
      "scoring": 7663,
      "falciparum": 7664,
      "fluctu": 7665,
      "cfu": 7666,
      "gir": 7667,
      "hplc": 7668,
      "kill": 7669,
      "cham": 7670,
      "lock": 7671,
      "excessive": 7672,
      "stra": 7673,
      "cane": 7674,
      "undergraduate": 7675,
      "managing": 7676,
      "fruc": 7677,
      "aking": 7678,
      "optimize": 7679,
      "adjunc": 7680,
      "h2o": 7681,
      "record": 7682,
      "alkyl": 7683,
      "latter": 7684,
      "nurse": 7685,
      "dosing": 7686,
      "proportional": 7687,
      "dispersive": 7688,
      "socioeconomic": 7689,
      "mitigate": 7690,
      "implementing": 7691,
      "mosquitoes": 7692,
      "blocks": 7693,
      "mangrove": 7694,
      "configurations": 7695,
      "acquisition": 7696,
      "matrices": 7697,
      "450": 7698,
      "nation": 7699,
      "tam": 7700,
      "utional": 7701,
      "ora": 7702,
      "argu": 7703,
      "print": 7704,
      "erence": 7705,
      "manip": 7706,
      "deterior": 7707,
      "define": 7708,
      "breath": 7709,
      "neuroprotective": 7710,
      "automatic": 7711,
      "correspond": 7712,
      "mineralization": 7713,
      "landscape": 7714,
      "cracking": 7715,
      "replication": 7716,
      "expectations": 7717,
      "february": 7718,
      "immediately": 7719,
      "tyrosin": 7720,
      "2a": 7721,
      "dh": 7722,
      "pw": 7723,
      "sic": 7724,
      "arrest": 7725,
      "chan": 7726,
      "trace": 7727,
      "tee": 7728,
      "antagon": 7729,
      "prist": 7730,
      "ended": 7731,
      "marks": 7732,
      "characters": 7733,
      "assessments": 7734,
      "inducing": 7735,
      "strengths": 7736,
      "introduce": 7737,
      "mandibular": 7738,
      "substances": 7739,
      "uterine": 7740,
      "segments": 7741,
      "saturation": 7742,
      "deficient": 7743,
      "stoch": 7744,
      "feline": 7745,
      "glycemic": 7746,
      "intelligence": 7747,
      "buc": 7748,
      "brom": 7749,
      "gm": 7750,
      "night": 7751,
      "pk": 7752,
      "pcc": 7753,
      "βcd": 7754,
      "redi": 7755,
      "stop": 7756,
      "sericin": 7757,
      "keep": 7758,
      "collect": 7759,
      "immunization": 7760,
      "psori": 7761,
      "smd": 7762,
      "recover": 7763,
      "piglet": 7764,
      "poorly": 7765,
      "continuously": 7766,
      "extreme": 7767,
      "window": 7768,
      "covering": 7769,
      "degrees": 7770,
      "flower": 7771,
      "ja": 7772,
      "rim": 7773,
      "recycl": 7774,
      "orts": 7775,
      "island": 7776,
      "icip": 7777,
      "acs": 7778,
      "ultimate": 7779,
      "oli": 7780,
      "umes": 7781,
      "fram": 7782,
      "ician": 7783,
      "istan": 7784,
      "accid": 7785,
      "flat": 7786,
      "becomes": 7787,
      "principle": 7788,
      "drivers": 7789,
      "endoscopy": 7790,
      "highlighted": 7791,
      "offered": 7792,
      "accessibility": 7793,
      "supersymmetry": 7794,
      "survivors": 7795,
      "tyrosinase": 7796,
      "sati": 7797,
      "swelling": 7798,
      "tof": 7799,
      "enin": 7800,
      "rod": 7801,
      "ingredi": 7802,
      "aya": 7803,
      "prescribed": 7804,
      "cord": 7805,
      "causal": 7806,
      "transesterification": 7807,
      "scopus": 7808,
      "processed": 7809,
      "designs": 7810,
      "timing": 7811,
      "defin": 7812,
      "litter": 7813,
      "utilize": 7814,
      "necro": 7815,
      "probably": 7816,
      "nitric": 7817,
      "flooding": 7818,
      "oriented": 7819,
      "vibrio": 7820,
      "cavity": 7821,
      "strengthened": 7822,
      "benzoxazine": 7823,
      "alzheimer": 7824,
      "bite": 7825,
      "eus": 7826,
      "kul": 7827,
      "lind": 7828,
      "nh3": 7829,
      "remission": 7830,
      "ofacial": 7831,
      "itr": 7832,
      "wean": 7833,
      "chai": 7834,
      "aps": 7835,
      "verte": 7836,
      "plans": 7837,
      "former": 7838,
      "translocation": 7839,
      "municip": 7840,
      "hydrophilic": 7841,
      "csc": 7842,
      "lao": 7843,
      "promotes": 7844,
      "quantified": 7845,
      "guidance": 7846,
      "explicit": 7847,
      "colony": 7848,
      "running": 7849,
      "coatings": 7850,
      "dpph": 7851,
      "phenomenon": 7852,
      "chicken": 7853,
      "restoration": 7854,
      "nanotubes": 7855,
      "hierarchical": 7856,
      "invariant": 7857,
      "voltammetry": 7858,
      "psoriasis": 7859,
      "ji": 7860,
      "vill": 7861,
      "west": 7862,
      "reconstructed": 7863,
      "usd": 7864,
      "moving": 7865,
      "adver": 7866,
      "nodes": 7867,
      "ibd": 7868,
      "authen": 7869,
      "calibr": 7870,
      "drople": 7871,
      "charides": 7872,
      "participant": 7873,
      "examining": 7874,
      "chikv": 7875,
      "pmma": 7876,
      "medicines": 7877,
      "flour": 7878,
      "orbent": 7879,
      "amycin": 7880,
      "alumina": 7881,
      "enrichment": 7882,
      "blinded": 7883,
      "spermat": 7884,
      "relapse": 7885,
      "cassava": 7886,
      "microfluidic": 7887,
      "stochastic": 7888,
      "authentic": 7889,
      "900": 7890,
      "ease": 7891,
      "hsp": 7892,
      "lity": 7893,
      "ras": 7894,
      "ubi": 7895,
      "yel": 7896,
      "acry": 7897,
      "provision": 7898,
      "dehydration": 7899,
      "dimer": 7900,
      "metic": 7901,
      "adsorb": 7902,
      "perman": 7903,
      "perfusion": 7904,
      "estrogen": 7905,
      "mons": 7906,
      "infarc": 7907,
      "overview": 7908,
      "130": 7909,
      "crosslinking": 7910,
      "localized": 7911,
      "considerably": 7912,
      "surfactants": 7913,
      "radiographic": 7914,
      "actinomy": 7915,
      "audit": 7916,
      "earlier": 7917,
      "1d": 7918,
      "fp": 7919,
      "qpcr": 7920,
      "xps": 7921,
      "κb": 7922,
      "tip": 7923,
      "tite": 7924,
      "enables": 7925,
      "ali": 7926,
      "tose": 7927,
      "diver": 7928,
      "apart": 7929,
      "stry": 7930,
      "phiv": 7931,
      "allergy": 7932,
      "gnss": 7933,
      "shed": 7934,
      "particulate": 7935,
      "140": 7936,
      "integrating": 7937,
      "strengthening": 7938,
      "supergravity": 7939,
      "mesen": 7940,
      "remote": 7941,
      "multiplex": 7942,
      "played": 7943,
      "halo": 7944,
      "anthin": 7945,
      "monoclonal": 7946,
      "vulcan": 7947,
      "uncertainties": 7948,
      "deviations": 7949,
      "elasticity": 7950,
      "differentiate": 7951,
      "resolved": 7952,
      "hydrocarbons": 7953,
      "preferences": 7954,
      "anisotropic": 7955,
      "depletion": 7956,
      "college": 7957,
      "leptospirosis": 7958,
      "ocean": 7959,
      "lib": 7960,
      "wd": 7961,
      "inating": 7962,
      "inae": 7963,
      "always": 7964,
      "agre": 7965,
      "geometric": 7966,
      "tendon": 7967,
      "transgender": 7968,
      "potentials": 7969,
      "conductive": 7970,
      "functioning": 7971,
      "alges": 7972,
      "amplit": 7973,
      "turns": 7974,
      "pharmacy": 7975,
      "fuz": 7976,
      "herit": 7977,
      "america": 7978,
      "farrow": 7979,
      "donors": 7980,
      "symmetry": 7981,
      "conserved": 7982,
      "ifying": 7983,
      "plot": 7984,
      "tracking": 7985,
      "mothers": 7986,
      "wolters": 7987,
      "kluwer": 7988,
      "homeostasis": 7989,
      "mesenchymal": 7990,
      "kes": 7991,
      "tgf": 7992,
      "alt": 7993,
      "arse": 7994,
      "ecal": 7995,
      "lei": 7996,
      "siveness": 7997,
      "sevent": 7998,
      "motility": 7999,
      "apatite": 8000,
      "spr": 8001,
      "sought": 8002,
      "ups": 8003,
      "gravi": 8004,
      "prone": 8005,
      "medial": 8006,
      "perioperative": 8007,
      "notch": 8008,
      "transmit": 8009,
      "multipl": 8010,
      "kins": 8011,
      "foods": 8012,
      "explores": 8013,
      "denture": 8014,
      "institutional": 8015,
      "ligament": 8016,
      "stocks": 8017,
      "geographical": 8018,
      "crystallization": 8019,
      "elevation": 8020,
      "cbct": 8021,
      "circulation": 8022,
      "adeno": 8023,
      "effort": 8024,
      "penetration": 8025,
      "hbsag": 8026,
      "arynge": 8027,
      "irrigation": 8028,
      "straight": 8029,
      "fuzzy": 8030,
      "dest": 8031,
      "hen": 8032,
      "kt": 8033,
      "lm": 8034,
      "remediation": 8035,
      "wirel": 8036,
      "concurrent": 8037,
      "aburi": 8038,
      "genous": 8039,
      "hearing": 8040,
      "caus": 8041,
      "biorefin": 8042,
      "volta": 8043,
      "publishers": 8044,
      "ophen": 8045,
      "weekly": 8046,
      "lipids": 8047,
      "endocr": 8048,
      "aclf": 8049,
      "ecosystem": 8050,
      "aluminum": 8051,
      "fibroblasts": 8052,
      "enabled": 8053,
      "pakistan": 8054,
      "yellow": 8055,
      "infarction": 8056,
      "aryngeal": 8057,
      "bending": 8058,
      "iti": 8059,
      "msp": 8060,
      "mtt": 8061,
      "vectors": 8062,
      "inorganic": 8063,
      "alu": 8064,
      "ordered": 8065,
      "ago": 8066,
      "begin": 8067,
      "opi": 8068,
      "hemodi": 8069,
      "distal": 8070,
      "ageal": 8071,
      "oblas": 8072,
      "foreign": 8073,
      "tilv": 8074,
      "acycl": 8075,
      "became": 8076,
      "naturally": 8077,
      "powerful": 8078,
      "metabolite": 8079,
      "oxygenation": 8080,
      "adapted": 8081,
      "pump": 8082,
      "takes": 8083,
      "adolescent": 8084,
      "cyanobacteria": 8085,
      "alkali": 8086,
      "details": 8087,
      "illustrate": 8088,
      "impairments": 8089,
      "professionals": 8090,
      "indoor": 8091,
      "thorac": 8092,
      "accessible": 8093,
      "commitment": 8094,
      "cooling": 8095,
      "ventilation": 8096,
      "amorpho": 8097,
      "giving": 8098,
      "za": 8099,
      "reactivity": 8100,
      "onco": 8101,
      "conformation": 8102,
      "iden": 8103,
      "sphe": 8104,
      "citi": 8105,
      "omers": 8106,
      "upregulation": 8107,
      "comit": 8108,
      "hygi": 8109,
      "infusion": 8110,
      "osc": 8111,
      "mics": 8112,
      "inclusive": 8113,
      "transmitted": 8114,
      "facebook": 8115,
      "complementary": 8116,
      "objects": 8117,
      "mixtures": 8118,
      "normalized": 8119,
      "photovolta": 8120,
      "buy": 8121,
      "pcv": 8122,
      "blended": 8123,
      "benign": 8124,
      "difficulty": 8125,
      "lipopolysaccharide": 8126,
      "writ": 8127,
      "coagul": 8128,
      "cannabis": 8129,
      "esophageal": 8130,
      "consortium": 8131,
      "1h": 8132,
      "350": 8133,
      "kb": 8134,
      "kha": 8135,
      "t3": 8136,
      "olic": 8137,
      "trim": 8138,
      "imid": 8139,
      "discre": 8140,
      "compromis": 8141,
      "drought": 8142,
      "margin": 8143,
      "operatively": 8144,
      "ometer": 8145,
      "hollow": 8146,
      "demonstrating": 8147,
      "symptomatic": 8148,
      "spectroscopic": 8149,
      "institutions": 8150,
      "maps": 8151,
      "priority": 8152,
      "directions": 8153,
      "directional": 8154,
      "grafted": 8155,
      "tdf": 8156,
      "juven": 8157,
      "topics": 8158,
      "impregnation": 8159,
      "permanent": 8160,
      "spheres": 8161,
      "fear": 8162,
      "gpa": 8163,
      "hbe": 8164,
      "pall": 8165,
      "ols": 8166,
      "mood": 8167,
      "incub": 8168,
      "peaks": 8169,
      "msm": 8170,
      "fide": 8171,
      "brus": 8172,
      "108": 8173,
      "frontal": 8174,
      "hadr": 8175,
      "recall": 8176,
      "molars": 8177,
      "jections": 8178,
      "electrons": 8179,
      "becoming": 8180,
      "wnt": 8181,
      "distress": 8182,
      "screw": 8183,
      "injected": 8184,
      "optimis": 8185,
      "challenged": 8186,
      "ocyan": 8187,
      "lattice": 8188,
      "nucleus": 8189,
      "hosts": 8190,
      "casp": 8191,
      "restriction": 8192,
      "hypothesized": 8193,
      "aggregate": 8194,
      "probiotic": 8195,
      "episodes": 8196,
      "managerial": 8197,
      "fibrillation": 8198,
      "wireless": 8199,
      "bam": 8200,
      "cns": 8201,
      "kle": 8202,
      "nv": 8203,
      "nct": 8204,
      "tong": 8205,
      "retic": 8206,
      "inequality": 8207,
      "stri": 8208,
      "valve": 8209,
      "cyst": 8210,
      "bra": 8211,
      "braf": 8212,
      "ldl": 8213,
      "holes": 8214,
      "fourth": 8215,
      "switching": 8216,
      "brown": 8217,
      "hemorrh": 8218,
      "flavor": 8219,
      "embedding": 8220,
      "deposits": 8221,
      "polymorphism": 8222,
      "forecast": 8223,
      "pesticides": 8224,
      "flavonoids": 8225,
      "wavelength": 8226,
      "drainage": 8227,
      "mber": 8228,
      "sors": 8229,
      "tl": 8230,
      "analges": 8231,
      "theas": 8232,
      "enamel": 8233,
      "albic": 8234,
      "prove": 8235,
      "vember": 8236,
      "terr": 8237,
      "pores": 8238,
      "cles": 8239,
      "note": 8240,
      "november": 8241,
      "phas": 8242,
      "diffuse": 8243,
      "angles": 8244,
      "template": 8245,
      "intact": 8246,
      "needle": 8247,
      "commercially": 8248,
      "olet": 8249,
      "snail": 8250,
      "campus": 8251,
      "coordination": 8252,
      "belonging": 8253,
      "neighbor": 8254,
      "epidermal": 8255,
      "warranted": 8256,
      "compliance": 8257,
      "theastern": 8258,
      "iib": 8259,
      "mno2": 8260,
      "pis": 8261,
      "ulties": 8262,
      "weather": 8263,
      "wides": 8264,
      "died": 8265,
      "tria": 8266,
      "adays": 8267,
      "expressing": 8268,
      "undr": 8269,
      "pread": 8270,
      "bert": 8271,
      "potency": 8272,
      "porphy": 8273,
      "patch": 8274,
      "parton": 8275,
      "muons": 8276,
      "pping": 8277,
      "amous": 8278,
      "https": 8279,
      "taxa": 8280,
      "histopathological": 8281,
      "immunodeficiency": 8282,
      "started": 8283,
      "hazards": 8284,
      "behaviours": 8285,
      "documented": 8286,
      "willi": 8287,
      "elucidate": 8288,
      "executive": 8289,
      "biodegradable": 8290,
      "immunosorbent": 8291,
      "husk": 8292,
      "earthquake": 8293,
      "widespread": 8294,
      "gt": 8295,
      "sectors": 8296,
      "insufficient": 8297,
      "answ": 8298,
      "refr": 8299,
      "refract": 8300,
      "elect": 8301,
      "co3": 8302,
      "uries": 8303,
      "tsun": 8304,
      "poc": 8305,
      "spect": 8306,
      "violet": 8307,
      "neoplas": 8308,
      "phi": 8309,
      "dissolved": 8310,
      "methan": 8311,
      "monomer": 8312,
      "mscs": 8313,
      "mining": 8314,
      "109": 8315,
      "epig": 8316,
      "137": 8317,
      "expon": 8318,
      "pda": 8319,
      "importantly": 8320,
      "impacted": 8321,
      "glycol": 8322,
      "regulate": 8323,
      "nerv": 8324,
      "fatal": 8325,
      "robustness": 8326,
      "aortic": 8327,
      "remarkably": 8328,
      "encourage": 8329,
      "zirconia": 8330,
      "fossil": 8331,
      "trauma": 8332,
      "phthalate": 8333,
      "gravimetric": 8334,
      "albicans": 8335,
      "ccl": 8336,
      "css": 8337,
      "ival": 8338,
      "mim": 8339,
      "pfs": 8340,
      "sj": 8341,
      "x2": 8342,
      "inactivated": 8343,
      "anne": 8344,
      "alum": 8345,
      "aldo": 8346,
      "alanine": 8347,
      "orr": 8348,
      "wire": 8349,
      "mekong": 8350,
      "cef": 8351,
      "lod": 8352,
      "locus": 8353,
      "oppos": 8354,
      "ortex": 8355,
      "ca2": 8356,
      "manual": 8357,
      "overweight": 8358,
      "avac": 8359,
      "quantify": 8360,
      "addressed": 8361,
      "intraoperative": 8362,
      "erythro": 8363,
      "dispersed": 8364,
      "manufacture": 8365,
      "ordinary": 8366,
      "trigger": 8367,
      "phenomena": 8368,
      "waters": 8369,
      "buffer": 8370,
      "taiwan": 8371,
      "caroten": 8372,
      "3h": 8373,
      "gv": 8374,
      "warm": 8375,
      "seasons": 8376,
      "mole": 8377,
      "iger": 8378,
      "agn": 8379,
      "agne": 8380,
      "peric": 8381,
      "amr": 8382,
      "geometry": 8383,
      "contex": 8384,
      "front": 8385,
      "polynom": 8386,
      "trypto": 8387,
      "ldh": 8388,
      "vsk": 8389,
      "intended": 8390,
      "locally": 8391,
      "employee": 8392,
      "suspension": 8393,
      "fitness": 8394,
      "seawater": 8395,
      "pseudomonas": 8396,
      "epoxy": 8397,
      "rcts": 8398,
      "coagulation": 8399,
      "retrieved": 8400,
      "proximal": 8401,
      "polynomial": 8402,
      "tryptophan": 8403,
      "1c": 8404,
      "bari": 8405,
      "fro": 8406,
      "osi": 8407,
      "tele": 8408,
      "timat": 8409,
      "edic": 8410,
      "topo": 8411,
      "actional": 8412,
      "coke": 8413,
      "usi": 8414,
      "dee": 8415,
      "genomes": 8416,
      "nets": 8417,
      "studying": 8418,
      "comorbi": 8419,
      "tremor": 8420,
      "keto": 8421,
      "stir": 8422,
      "nowadays": 8423,
      "aeus": 8424,
      "deline": 8425,
      "algal": 8426,
      "gradually": 8427,
      "publication": 8428,
      "discusses": 8429,
      "residential": 8430,
      "administr": 8431,
      "latent": 8432,
      "visualization": 8433,
      "neurons": 8434,
      "indonesian": 8435,
      "exploration": 8436,
      "quinol": 8437,
      "expanded": 8438,
      "neutrino": 8439,
      "diarrhea": 8440,
      "hygiene": 8441,
      "williams": 8442,
      "contexts": 8443,
      "timately": 8444,
      "comorbidities": 8445,
      "fid": 8446,
      "fgf": 8447,
      "pren": 8448,
      "wors": 8449,
      "zones": 8450,
      "าร": 8451,
      "anionic": 8452,
      "anchor": 8453,
      "refer": 8454,
      "asc": 8455,
      "resver": 8456,
      "uria": 8457,
      "opic": 8458,
      "odic": 8459,
      "pressures": 8460,
      "combus": 8461,
      "thane": 8462,
      "brc": 8463,
      "ishing": 8464,
      "suppress": 8465,
      "illa": 8466,
      "goog": 8467,
      "electropho": 8468,
      "firstly": 8469,
      "stere": 8470,
      "sucrose": 8471,
      "airway": 8472,
      "capacitor": 8473,
      "cohorts": 8474,
      "retard": 8475,
      "antigens": 8476,
      "elimination": 8477,
      "pharmacokinetics": 8478,
      "rabies": 8479,
      "convenience": 8480,
      "stratified": 8481,
      "municipal": 8482,
      "bid": 8483,
      "cic": 8484,
      "cub": 8485,
      "je": 8486,
      "rn": 8487,
      "rules": 8488,
      "ecology": 8489,
      "prost": 8490,
      "perin": 8491,
      "aren": 8492,
      "quick": 8493,
      "actu": 8494,
      "prescrip": 8495,
      "intermit": 8496,
      "desirable": 8497,
      "worse": 8498,
      "decade": 8499,
      "transf": 8500,
      "eps": 8501,
      "suppor": 8502,
      "amines": 8503,
      "ternary": 8504,
      "dominated": 8505,
      "oils": 8506,
      "elegans": 8507,
      "confined": 8508,
      "methylene": 8509,
      "gait": 8510,
      "polymeric": 8511,
      "rhinos": 8512,
      "corresponds": 8513,
      "silicon": 8514,
      "informal": 8515,
      "walls": 8516,
      "camera": 8517,
      "fcgr": 8518,
      "democr": 8519,
      "difficulties": 8520,
      "connection": 8521,
      "triple": 8522,
      "seizure": 8523,
      "perovsk": 8524,
      "tsunami": 8525,
      "115": 8526,
      "bh": 8527,
      "fis": 8528,
      "tung": 8529,
      "vast": 8530,
      "insec": 8531,
      "atrol": 8532,
      "asked": 8533,
      "absorb": 8534,
      "quen": 8535,
      "tear": 8536,
      "ayer": 8537,
      "omas": 8538,
      "lla": 8539,
      "cartil": 8540,
      "biotic": 8541,
      "catalyzed": 8542,
      "pyrid": 8543,
      "milli": 8544,
      "hippo": 8545,
      "inception": 8546,
      "capacities": 8547,
      "novo": 8548,
      "magnes": 8549,
      "exclusion": 8550,
      "plaque": 8551,
      "coronavac": 8552,
      "clustering": 8553,
      "fewer": 8554,
      "benzo": 8555,
      "tctr": 8556,
      "anesthetic": 8557,
      "document": 8558,
      "precursors": 8559,
      "bayes": 8560,
      "benchmark": 8561,
      "inusitis": 8562,
      "nanomaterials": 8563,
      "acrylic": 8564,
      "amorphous": 8565,
      "resveratrol": 8566,
      "google": 8567,
      "rhinosinusitis": 8568,
      "kis": 8569,
      "kno": 8570,
      "lamin": 8571,
      "pss": 8572,
      "schem": 8573,
      "tors": 8574,
      "tau": 8575,
      "tons": 8576,
      "yle": 8577,
      "yol": 8578,
      "allocated": 8579,
      "asper": 8580,
      "took": 8581,
      "ecom": 8582,
      "urgent": 8583,
      "vial": 8584,
      "strand": 8585,
      "upstream": 8586,
      "osic": 8587,
      "102": 8588,
      "104": 8589,
      "portable": 8590,
      "microplastics": 8591,
      "gynec": 8592,
      "capt": 8593,
      "ivered": 8594,
      "111": 8595,
      "delivered": 8596,
      "neurodegenerative": 8597,
      "searches": 8598,
      "continue": 8599,
      "prime": 8600,
      "skeletal": 8601,
      "propag": 8602,
      "households": 8603,
      "hydroxyapatite": 8604,
      "crop": 8605,
      "tunnel": 8606,
      "competition": 8607,
      "mitigation": 8608,
      "wilkins": 8609,
      "definition": 8610,
      "epilepsy": 8611,
      "photovoltaic": 8612,
      "written": 8613,
      "cts": 8614,
      "eating": 8615,
      "fair": 8616,
      "gives": 8617,
      "pill": 8618,
      "vt": 8619,
      "incott": 8620,
      "tia": 8621,
      "atum": 8622,
      "usa": 8623,
      "adder": 8624,
      "adsorbed": 8625,
      "pertus": 8626,
      "uty": 8627,
      "syno": 8628,
      "trees": 8629,
      "outside": 8630,
      "arities": 8631,
      "ocene": 8632,
      "responsibility": 8633,
      "scaling": 8634,
      "achievement": 8635,
      "supervised": 8636,
      "consuming": 8637,
      "sheets": 8638,
      "hypotheses": 8639,
      "fruits": 8640,
      "gestation": 8641,
      "rarely": 8642,
      "juice": 8643,
      "overexpression": 8644,
      "consistently": 8645,
      "fe3o4": 8646,
      "dramatically": 8647,
      "lippincott": 8648,
      "bromide": 8649,
      "farrowing": 8650,
      "refractory": 8651,
      "nervous": 8652,
      "koh": 8653,
      "mab": 8654,
      "instability": 8655,
      "inputs": 8656,
      "anil": 8657,
      "edta": 8658,
      "ascor": 8659,
      "routes": 8660,
      "icated": 8661,
      "arin": 8662,
      "cod": 8663,
      "copolymer": 8664,
      "diphenyl": 8665,
      "chal": 8666,
      "condens": 8667,
      "trache": 8668,
      "suture": 8669,
      "ima": 8670,
      "phage": 8671,
      "acting": 8672,
      "charging": 8673,
      "friction": 8674,
      "polypropylene": 8675,
      "idea": 8676,
      "limb": 8677,
      "operator": 8678,
      "facility": 8679,
      "integral": 8680,
      "coping": 8681,
      "cholangio": 8682,
      "implantation": 8683,
      "hpnd": 8684,
      "controller": 8685,
      "luminescence": 8686,
      "passive": 8687,
      "immobilization": 8688,
      "paradig": 8689,
      "epidemiological": 8690,
      "auton": 8691,
      "alignment": 8692,
      "glucan": 8693,
      "ubiqu": 8694,
      "112": 8695,
      "bib": 8696,
      "dich": 8697,
      "h1": 8698,
      "hall": 8699,
      "tand": 8700,
      "waves": 8701,
      "atch": 8702,
      "istics": 8703,
      "tough": 8704,
      "chel": 8705,
      "aper": 8706,
      "bee": 8707,
      "soon": 8708,
      "outperforms": 8709,
      "venom": 8710,
      "observer": 8711,
      "multidrug": 8712,
      "door": 8713,
      "stein": 8714,
      "partly": 8715,
      "partum": 8716,
      "indian": 8717,
      "athy": 8718,
      "233": 8719,
      "crystals": 8720,
      "heterozygous": 8721,
      "casting": 8722,
      "proportions": 8723,
      "category": 8724,
      "differentially": 8725,
      "discover": 8726,
      "cadmium": 8727,
      "quinone": 8728,
      "markedly": 8729,
      "autophagy": 8730,
      "pristine": 8731,
      "actinomyce": 8732,
      "caspase": 8733,
      "undrained": 8734,
      "cartilage": 8735,
      "pertussis": 8736,
      "p53": 8737,
      "rase": 8738,
      "ylo": 8739,
      "meat": 8740,
      "conve": 8741,
      "trac": 8742,
      "admitted": 8743,
      "agonal": 8744,
      "immer": 8745,
      "omor": 8746,
      "corn": 8747,
      "afford": 8748,
      "drive": 8749,
      "bring": 8750,
      "worm": 8751,
      "illumin": 8752,
      "generic": 8753,
      "dynam": 8754,
      "2007": 8755,
      "personnel": 8756,
      "philip": 8757,
      "machin": 8758,
      "cros": 8759,
      "aquatic": 8760,
      "grafting": 8761,
      "malignancy": 8762,
      "thorough": 8763,
      "ofluores": 8764,
      "bowel": 8765,
      "persistence": 8766,
      "hemodialysis": 8767,
      "hone": 8768,
      "m1": 8769,
      "mary": 8770,
      "pso": 8771,
      "pear": 8772,
      "tlr": 8773,
      "vax": 8774,
      "xia": 8775,
      "restr": 8776,
      "tized": 8777,
      "rous": 8778,
      "itan": 8779,
      "sided": 8780,
      "concomit": 8781,
      "lycer": 8782,
      "loci": 8783,
      "exogenous": 8784,
      "emeral": 8785,
      "parity": 8786,
      "prp": 8787,
      "inflation": 8788,
      "006": 8789,
      "microm": 8790,
      "dermat": 8791,
      "subgroups": 8792,
      "mediates": 8793,
      "volution": 8794,
      "facing": 8795,
      "cd8": 8796,
      "h2s": 8797,
      "2008": 8798,
      "institution": 8799,
      "courses": 8800,
      "aggregates": 8801,
      "bracon": 8802,
      "calcination": 8803,
      "vulnerable": 8804,
      "leishmania": 8805,
      "erosion": 8806,
      "universities": 8807,
      "marginal": 8808,
      "synechocystis": 8809,
      "combustion": 8810,
      "tandem": 8811,
      "ah": 8812,
      "cage": 8813,
      "cau": 8814,
      "g2": 8815,
      "held": 8816,
      "lon": 8817,
      "lasia": 8818,
      "rgo": 8819,
      "xanth": 8820,
      "thems": 8821,
      "lewis": 8822,
      "division": 8823,
      "mour": 8824,
      "pose": 8825,
      "sound": 8826,
      "quer": 8827,
      "mah": 8828,
      "osus": 8829,
      "miner": 8830,
      "developments": 8831,
      "subtype": 8832,
      "avage": 8833,
      "bioavailability": 8834,
      "volumes": 8835,
      "ltdthis": 8836,
      "hydrogenase": 8837,
      "confirmatory": 8838,
      "nio": 8839,
      "penia": 8840,
      "melting": 8841,
      "olysis": 8842,
      "demands": 8843,
      "symmetric": 8844,
      "convergence": 8845,
      "inosa": 8846,
      "attached": 8847,
      "expectation": 8848,
      "osteocl": 8849,
      "instruction": 8850,
      "transcriptome": 8851,
      "phosphorylation": 8852,
      "brief": 8853,
      "creativecom": 8854,
      "chamber": 8855,
      "agreed": 8856,
      "endocrine": 8857,
      "aldosterone": 8858,
      "concomitant": 8859,
      "ozo": 8860,
      "pte": 8861,
      "rule": 8862,
      "vf": 8863,
      "atase": 8864,
      "isomer": 8865,
      "sting": 8866,
      "ita": 8867,
      "elve": 8868,
      "ulder": 8869,
      "permission": 8870,
      "beach": 8871,
      "exists": 8872,
      "hepg": 8873,
      "acetal": 8874,
      "raised": 8875,
      "initis": 8876,
      "piec": 8877,
      "simulate": 8878,
      "hosph": 8879,
      "mesh": 8880,
      "autoimmune": 8881,
      "inhibiting": 8882,
      "intram": 8883,
      "squamous": 8884,
      "mastic": 8885,
      "resonant": 8886,
      "directed": 8887,
      "funding": 8888,
      "gastroenter": 8889,
      "onotic": 8890,
      "orthodontic": 8891,
      "epidemic": 8892,
      "mangostin": 8893,
      "beliefs": 8894,
      "ophilic": 8895,
      "intermittent": 8896,
      "emerald": 8897,
      "creativecommons": 8898,
      "hong": 8899,
      "pid": 8900,
      "insur": 8901,
      "annot": 8902,
      "accep": 8903,
      "lev": 8904,
      "ultimately": 8905,
      "consequence": 8906,
      "pod": 8907,
      "neo": 8908,
      "urethane": 8909,
      "park": 8910,
      "crs": 8911,
      "oxal": 8912,
      "suppressive": 8913,
      "mediators": 8914,
      "lifest": 8915,
      "complexation": 8916,
      "evident": 8917,
      "distances": 8918,
      "squares": 8919,
      "lengths": 8920,
      "journals": 8921,
      "modulated": 8922,
      "ligno": 8923,
      "tight": 8924,
      "zoonotic": 8925,
      "electrolytes": 8926,
      "solubil": 8927,
      "disruption": 8928,
      "constituents": 8929,
      "sjs": 8930,
      "bim": 8931,
      "gaba": 8932,
      "kla": 8933,
      "nk": 8934,
      "sinter": 8935,
      "uts": 8936,
      "ani": 8937,
      "referred": 8938,
      "rejection": 8939,
      "ulcer": 8940,
      "unt": 8941,
      "apenem": 8942,
      "ado": 8943,
      "express": 8944,
      "ematic": 8945,
      "pluri": 8946,
      "phu": 8947,
      "gered": 8948,
      "prono": 8949,
      "lived": 8950,
      "infiltration": 8951,
      "centered": 8952,
      "transit": 8953,
      "catech": 8954,
      "selecting": 8955,
      "conclude": 8956,
      "observe": 8957,
      "cisplatin": 8958,
      "http": 8959,
      "triglycer": 8960,
      "chrome": 8961,
      "summarized": 8962,
      "applicability": 8963,
      "scheduling": 8964,
      "bubble": 8965,
      "assembled": 8966,
      "pollutants": 8967,
      "supportive": 8968,
      "kk": 8969,
      "mtor": 8970,
      "nh": 8971,
      "̈ve": 8972,
      "inverse": 8973,
      "tise": 8974,
      "enco": 8975,
      "eca": 8976,
      "cooking": 8977,
      "dehydrogenation": 8978,
      "unsaturated": 8979,
      "lot": 8980,
      "nose": 8981,
      "discontinu": 8982,
      "grip": 8983,
      "pra": 8984,
      "differed": 8985,
      "curric": 8986,
      "incremental": 8987,
      "fractional": 8988,
      "polyvinyl": 8989,
      "session": 8990,
      "127": 8991,
      "purification": 8992,
      "264": 8993,
      "naïve": 8994,
      "degraded": 8995,
      "denv": 8996,
      "boron": 8997,
      "policymakers": 8998,
      "flexion": 8999,
      "situations": 9000,
      "mirnas": 9001,
      "tumour": 9002,
      "glutath": 9003,
      "spike": 9004,
      "feces": 9005,
      "vietnamese": 9006,
      "rocks": 9007,
      "leukemia": 9008,
      "false": 9009,
      "haemolytic": 9010,
      "installed": 9011,
      "pneumoniae": 9012,
      "isotherm": 9013,
      "movements": 9014,
      "loxacin": 9015,
      "honey": 9016,
      "insurance": 9017,
      "sintering": 9018,
      "bw": 9019,
      "rely": 9020,
      "coup": 9021,
      "uscular": 9022,
      "aberr": 9023,
      "quart": 9024,
      "opho": 9025,
      "neat": 9026,
      "dissolution": 9027,
      "lium": 9028,
      "interference": 9029,
      "twelve": 9030,
      "bron": 9031,
      "navig": 9032,
      "acidity": 9033,
      "122": 9034,
      "military": 9035,
      "norm": 9036,
      "blasto": 9037,
      "germ": 9038,
      "kinematic": 9039,
      "grams": 9040,
      "turing": 9041,
      "explan": 9042,
      "digesti": 9043,
      "businesses": 9044,
      "aeros": 9045,
      "nutrients": 9046,
      "fasting": 9047,
      "colour": 9048,
      "immunoassay": 9049,
      "smokers": 9050,
      "fixation": 9051,
      "mucosa": 9052,
      "cleaning": 9053,
      "harvesting": 9054,
      "vacuum": 9055,
      "religious": 9056,
      "biorefinery": 9057,
      "acycline": 9058,
      "hepg2": 9059,
      "cured": 9060,
      "dense": 9061,
      "gad": 9062,
      "hcl": 9063,
      "hba": 9064,
      "jac": 9065,
      "jag": 9066,
      "kary": 9067,
      "mof": 9068,
      "pyl": 9069,
      "tz": 9070,
      "already": 9071,
      "edx": 9072,
      "asal": 9073,
      "entry": 9074,
      "urg": 9075,
      "mee": 9076,
      "posed": 9077,
      "undes": 9078,
      "dissoci": 9079,
      "tyros": 9080,
      "shoulder": 9081,
      "osmo": 9082,
      "fiers": 9083,
      "licenses": 9084,
      "decor": 9085,
      "biosis": 9086,
      "hadron": 9087,
      "fulness": 9088,
      "lineage": 9089,
      "160": 9090,
      "moral": 9091,
      "northeastern": 9092,
      "balanced": 9093,
      "programmed": 9094,
      "rhinitis": 9095,
      "commerce": 9096,
      "parent": 9097,
      "labeled": 9098,
      "drawing": 9099,
      "sugarcane": 9100,
      "attempt": 9101,
      "carbapenem": 9102,
      "nanofibers": 9103,
      "dendrobium": 9104,
      "eosin": 9105,
      "identical": 9106,
      "agnetic": 9107,
      "c16": 9108,
      "cfa": 9109,
      "din": 9110,
      "nz": 9111,
      "nations": 9112,
      "pir": 9113,
      "scler": 9114,
      "tx": 9115,
      "การ": 9116,
      "prostate": 9117,
      "degeneration": 9118,
      "vein": 9119,
      "dial": 9120,
      "ilo": 9121,
      "terrestr": 9122,
      "exome": 9123,
      "whit": 9124,
      "007": 9125,
      "uginosa": 9126,
      "regime": 9127,
      "cade": 9128,
      "mann": 9129,
      "feel": 9130,
      "proteomic": 9131,
      "conditional": 9132,
      "humidity": 9133,
      "postpartum": 9134,
      "fluidized": 9135,
      "iana": 9136,
      "idium": 9137,
      "aeruginosa": 9138,
      "cology": 9139,
      "septic": 9140,
      "substance": 9141,
      "augmented": 9142,
      "physiology": 9143,
      "differentiated": 9144,
      "glycemia": 9145,
      "c3n4": 9146,
      "obstructive": 9147,
      "cotton": 9148,
      "bovine": 9149,
      "butyrate": 9150,
      "seventy": 9151,
      "opioid": 9152,
      "minerals": 9153,
      "glutathione": 9154,
      "3p": 9155,
      "e2": 9156,
      "ographic": 9157,
      "recharge": 9158,
      "rotation": 9159,
      "arbon": 9160,
      "acu": 9161,
      "tera": 9162,
      "soy": 9163,
      "nox": 9164,
      "symp": 9165,
      "duck": 9166,
      "fouling": 9167,
      "crust": 9168,
      "cylind": 9169,
      "modules": 9170,
      "interrup": 9171,
      "endit": 9172,
      "endogenous": 9173,
      "destruc": 9174,
      "properly": 9175,
      "multidisciplinary": 9176,
      "expendit": 9177,
      "bladder": 9178,
      "participate": 9179,
      "randomised": 9180,
      "photocatalysts": 9181,
      "ethical": 9182,
      "consumed": 9183,
      "maximize": 9184,
      "master": 9185,
      "adily": 9186,
      "fibroin": 9187,
      "addressing": 9188,
      "colitis": 9189,
      "harmon": 9190,
      "falls": 9191,
      "ecosystems": 9192,
      "owners": 9193,
      "leptospira": 9194,
      "accelerated": 9195,
      "osteoarthritis": 9196,
      "penetr": 9197,
      "zikv": 9198,
      "corticosteroid": 9199,
      "capacitance": 9200,
      "thoracic": 9201,
      "magnesium": 9202,
      "tyrosine": 9203,
      "drom": 9204,
      "lated": 9205,
      "lens": 9206,
      "rrt": 9207,
      "inspec": 9208,
      "inadequate": 9209,
      "anemia": 9210,
      "tio": 9211,
      "allocation": 9212,
      "tobacter": 9213,
      "elves": 9214,
      "deform": 9215,
      "ura": 9216,
[...]
